{"<s>":0,"<pad>":1,"</s>":2,"<unk>":3,"<mask>":4,"!":5,"\"":6,"#":7,"$":8,"%":9,"&":10,"'":11,"(":12,")":13,"*":14,"+":15,",":16,"-":17,".":18,"/":19,"0":20,"1":21,"2":22,"3":23,"4":24,"5":25,"6":26,"7":27,"8":28,"9":29,":":30,";":31,"<":32,"=":33,">":34,"?":35,"@":36,"A":37,"B":38,"C":39,"D":40,"E":41,"F":42,"G":43,"H":44,"I":45,"J":46,"K":47,"L":48,"M":49,"N":50,"O":51,"P":52,"Q":53,"R":54,"S":55,"T":56,"U":57,"V":58,"W":59,"X":60,"Y":61,"Z":62,"[":63,"\\":64,"]":65,"^":66,"_":67,"`":68,"a":69,"b":70,"c":71,"d":72,"e":73,"f":74,"g":75,"h":76,"i":77,"j":78,"k":79,"l":80,"m":81,"n":82,"o":83,"p":84,"q":85,"r":86,"s":87,"t":88,"u":89,"v":90,"w":91,"x":92,"y":93,"z":94,"{":95,"|":96,"}":97,"~":98,"¡":99,"¢":100,"£":101,"¤":102,"¥":103,"¦":104,"§":105,"¨":106,"©":107,"ª":108,"«":109,"¬":110,"®":111,"¯":112,"°":113,"±":114,"²":115,"³":116,"´":117,"µ":118,"¶":119,"·":120,"¸":121,"¹":122,"º":123,"»":124,"¼":125,"½":126,"¾":127,"¿":128,"À":129,"Á":130,"Â":131,"Ã":132,"Ä":133,"Å":134,"Æ":135,"Ç":136,"È":137,"É":138,"Ê":139,"Ë":140,"Ì":141,"Í":142,"Î":143,"Ï":144,"Ð":145,"Ñ":146,"Ò":147,"Ó":148,"Ô":149,"Õ":150,"Ö":151,"×":152,"Ø":153,"Ù":154,"Ú":155,"Û":156,"Ü":157,"Ý":158,"Þ":159,"ß":160,"à":161,"á":162,"â":163,"ã":164,"ä":165,"å":166,"æ":167,"ç":168,"è":169,"é":170,"ê":171,"ë":172,"ì":173,"í":174,"î":175,"ï":176,"ð":177,"ñ":178,"ò":179,"ó":180,"ô":181,"õ":182,"ö":183,"÷":184,"ø":185,"ù":186,"ú":187,"û":188,"ü":189,"ý":190,"þ":191,"ÿ":192,"Ā":193,"ā":194,"Ă":195,"ă":196,"Ą":197,"ą":198,"Ć":199,"ć":200,"Ĉ":201,"ĉ":202,"Ċ":203,"ċ":204,"Č":205,"č":206,"Ď":207,"ď":208,"Đ":209,"đ":210,"Ē":211,"ē":212,"Ĕ":213,"ĕ":214,"Ė":215,"ė":216,"Ę":217,"ę":218,"Ě":219,"ě":220,"Ĝ":221,"ĝ":222,"Ğ":223,"ğ":224,"Ġ":225,"ġ":226,"Ģ":227,"ģ":228,"Ĥ":229,"ĥ":230,"Ħ":231,"ħ":232,"Ĩ":233,"ĩ":234,"Ī":235,"ī":236,"Ĭ":237,"ĭ":238,"Į":239,"į":240,"İ":241,"ı":242,"Ĳ":243,"ĳ":244,"Ĵ":245,"ĵ":246,"Ķ":247,"ķ":248,"ĸ":249,"Ĺ":250,"ĺ":251,"Ļ":252,"ļ":253,"Ľ":254,"ľ":255,"Ŀ":256,"ŀ":257,"Ł":258,"ł":259,"Ń":260,"Ġt":261,"he":262,"Ġa":263,"on":264,"in":265,"Ġo":266,"Ġthe":267,"re":268,"it":269,"Ġof":270,"is":271,"en":272,"at":273,"er":274,"Ġw":275,"Ġc":276,"ion":277,"Ġs":278,"Ġp":279,"al":280,"ic":281,"Ġin":282,"nd":283,"es":284,"Ġb":285,"Ġth":286,"or":287,"Ġm":288,"Ġto":289,"ce":290,"ct":291,"Ġf":292,"ing":293,"an":294,"ed":295,"Ġn":296,"Ġe":297,"se":298,"ou":299,"Ġis":300,"ly":301,"le":302,"ĠĠ":303,"Ġre":304,"Ġit":305,"Ġand":306,"Ġcon":307,"Ġd":308,"Ġbe":309,"st":310,"om":311,"ent":312,"Ġwh":313,"ot":314,"ar":315,"as":316,"ut":317,"ich":318,"ect":319,"Ġh":320,"Ġpr":321,"Ġas":322,"ll":323,"Ġu":324,"Ġwhich":325,"Ġthat":326,"the":327,"iv":328,"im":329,"ition":330,"ation":331,"os":332,"ity":333,"Ġan":334,"Ġex":335,"Ġon":336,"Ġl":337,"ical":338,"Ġnot":339,"ĠĠĠĠ":340,"pt":341,"ject":342,"Ġthis":343,"ess":344,"ow":345,"Ġwe":346,"ith":347,"Ġfor":348,"id":349,"ib":350,"bject":351,"Ġsu":352,"ence":353,"cept":354,"ter":355,"ure":356,"ld":357,"ir":358,"Ġg":359,"Ġwith":360,"th":361,"ur":362,"Äł":363,"ci":364,"ver":365,"ĠI":366,"qu":367,"og":368,"ive":369,"res":370,"ist":371,"Ġor":372,"ception":373,"ason":374,"ay":375,"ere":376,"gh":377,"ain":378,"Ġcan":379,"if":380,"ec":381,"Ġby":382,"and":383,"per":384,"sel":385,"âĢ":386,"sib":387,"ul":388,"Ġall":389,"em":390,"rom":391,"pp":392,"Ġpro":393,"Ġreason":394,"ĠT":395,"Ġobject":396,"con":397,"Ġare":398,"ve":399,"ate":400,"ch":401,"Ġfrom":402,"end":403,"il":404,"Ġde":405,"Ġal":406,"ust":407,"ore":408,"Ġint":409,"ple":410,"act":411,"ther":412,"Ġbut":413,"us":414,"hen":415,"Ġits":416,"ossib":417,"Ġha":418,"Ġconception":419,"ill":420,"Ġat":421,"Ġonly":422,"aw":423,"am":424,"ab":425,"pl":426,"Ġun":427,"ould":428,"dition":429,"nder":430,"de":431,"ough":432,"âĢĶ":433,"ol":434,"um":435,"self":436,"ig":437,"inci":438,"ĠĠĠĠĠĠĠĠ":439,"Ġca":440,"Ġ(":441,"ans":442,"tain":443,"Ġour":444,"Ġthere":445,"min":446,"ies":447,"Ġlaw":448,"termin":449,"tr":450,"Ġmust":451,"Ġsp":452,"Ġcom":453,"not":454,"cc":455,"of":456,"Ġr":457,"ality":458,"est":459,"Ġpossib":460,"Ġprinci":461,"ecess":462,"ous":463,"resent":464,"Ġem":465,"Ġwor":466,"Ġso":467,"ide":468,"Ġpure":469,"Ġexist":470,"Ġother":471,"her":472,"Ġme":473,"Ġunder":474,"ience":475,"ĊĊ":476,"Ġhave":477,"perience":478,"Ġv":479,"Ġdetermin":480,"Ġtr":481,"stand":482,"ction":483,"Ġdo":484,"Ġsen":485,"ogn":486,"Ġmere":487,"Ġwill":488,"fore":489,"od":490,"pr":491,"ime":492,"ĠThe":493,"ĠB":494,"use":495,"ary":496,"Ġcondition":497,"very":498,"ge":499,"Ġany":500,"ak":501,"Ġnecess":502,"Ġim":503,"Ġhe":504,"Ġab":505,"omen":506,"ad":507,"Ġitself":508,"ound":509,"Ġmay":510,"Ġper":511,"henomen":512,"ori":513,"Ġform":514,"all":515,"Ġthem":516,"Ġnat":517,"Ġno":518,"ard":519,"Ġthey":520,"standing":521,"su":522,"Ġthing":523,"ame":524,"pir":525,"pos":526,"Ġsy":527,"uition":528,"Ġk":529,"able":530,"ind":531,"ever":532,"Ġtime":533,"Ġreg":534,"Ġus":535,"Ġexperience":536,"ility":537,"ose":538,"iori":539,"pirical":540,"ant":541,"ex":542,"Ġif":543,"ph":544,"ff":545,"Ġsh":546,"ĠF":547,"Ġbeing":548,"Ġse":549,"art":550,"endent":551,"Ġcannot":552,"ace":553,"ations":554,"actical":555,"out":556,"Ġcogn":557,"ome":558,"Ġst":559,"Ġone":560,"ud":561,"Ġhas":562,"Ġqu":563,"Ġide":564,"Ġphenomen":565,"Ġthese":566,"Ġrel":567,"Ġev":568,"ves":569,"ĠBut":570,"ght":571,"Ġpossible":572,"ord":573,"present":574,"ire":575,"wh":576,"Ġmor":577,"ance":578,"ĠA":579,"Ġcons":580,"Ġpriori":581,"now":582,"our":583,"Ġgiv":584,"Ġintuition":585,"ac":586,"Ġj":587,"ative":588,"Ġnature":589,"Ġacc":590,"Ġman":591,"Ġempirical":592,"ult":593,"un":594,"thing":595,"one":596,"ansc":597,"Ġwould":598,"ples":599,"Ãł":600,"Ġtherefore":601,"ement":602,"Ġsuch":603,"Ġapp":604,"Ġunderstanding":605,"Ġtheir":606,"ca":607,"Ġexistence":608,"anscendent":609,"ite":610,"Ġad":611,"Ġconceptions":612,"sequ":613,"for":614,"Ġpractical":615,"ers":616,"Ġcognition":617,"pon":618,"Ġprinciple":619,"Ġy":620,"ally":621,"ute":622,"nthe":623,"Ġsubject":624,"ĠFor":625,"Ġregard":626,"ĠP":627,"to":628,"Ġdis":629,"ĠÃł":630,"selves":631,"position":632,"Ġgiven":633,"ently":634,"),":635,"Ġobjects":636,"et":637,"so":638,"ions":639,"Ġworld":640,"ict":641,"ight":642,"Ġmerely":643,"Ġknow":644,"anscendental":645,"str":646,"which":647,"ment":648,"ong":649,"Ġle":650,"Ġpre":651,"here":652,"fere":653,"te":654,"cl":655,"ĠTh":656,"Ġar":657,"Ġch":658,"Ġwithout":659,"feren":660,"ener":661,"Ġpart":662,"tical":663,"Ġphenomena":664,"Ġrepresent":665,"Ġsame":666,"sp":667,"ertain":668,"Ġsome":669,"Ġmoral":670,"Ġthings":671,"ces":672,"Ġevery":673,"Ġmeans":674,"Ġprinciples":675,"ĠĠĠĠĠĠĠĠĠĠĠĠĠĠĠĠ":676,"tern":677,"ought":678,"ie":679,"gement":680,"ake":681,"Ġsynthe":682,"ĠS":683,"ise":684,"sis":685,"sequently":686,"Ġwhat":687,"Ġhow":688,"atter":689,"Ġunity":690,"Ġph":691,"ated":692,"hing":693,"el":694,"sol":695,"Ġnecessary":696,"ens":697,"ording":698,"pre":699,"ress":700,"Ġeven":701,"Ġmy":702,"led":703,"ays":704,"Ġwho":705,"op":706,"Ġhis":707,"ag":708,"fin":709,"ĠN":710,"oy":711,"ppos":712,"Ġcase":713,"ness":714,"phy":715,"that":716,"ĠO":717,"cause":718,"udgement":719,"ternal":720,"int":721,"Ġsub":722,"though":723,"mat":724,"Ġthan":725,"Ġlaws":726,"eneral":727,"possib":728,"Ġser":729,"imit":730,"Ġmore":731,"Ġidea":732,"Ġfre":733,"Ġrelation":734,"ced":735,"solute":736,"Ġne":737,"Ġaction":738,"Ġma":739,"condition":740,"Ġcontain":741,"du":742,"iz":743,"ecul":744,"ÃĦ":745,"nect":746,"Ġbecause":747,"Ġalso":748,"be":749,"Ġfar":750,"Ġdif":751,"ilos":752,"Ġdoes":753,"ber":754,"ĠIn":755,"ledge":756,"ways":757,"Ġpresent":758,"Ġpl":759,"Ġupon":760,"Ġcertain":761,"Ġtranscendental":762,"Ġend":763,"Ġcaus":764,"Ġcomple":765,"Ġconditions":766,"Ġbel":767,"ort":768,"Ġnothing":769,"Ġcont":770,"ogical":771,"ĠIt":772,"ĠG":773,"reat":774,"Ġpossibility":775,"oll":776,"ĠW":777,"ond":778,"hether":779,"Ġinto":780,"ational":781,"Ġjudgement":782,"cious":783,"ollow":784,"ulty":785,"ost":786,"ue":787,"Ġuse":788,"Ġthen":789,"Ġwhen":790,"Ġaccording":791,"ÅĤ":792,"ÃĦÅĤ":793,"ffect":794,"Ġcause":795,"Ġnever":796,"Ġsense":797,"Ġproposition":798,"ploy":799,"ign":800,"Ġgr":801,"gor":802,"me":803,"irst":804,"com":805,"Ġcontr":806,"Ġgeneral":807,"rit":808,"Ġgo":809,"ategor":810,"The":811,"ial":812,"uch":813,"Ġconsequently":814,"ĠC":815,"Ġalone":816,"Ġow":817,"stem":818,"ast":819,"Ġabsolute":820,"ivers":821,"ser":822,"Ġproper":823,"Ġthought":824,"Ġhim":825,"Ġspace":826,"ism":827,"form":828,"Ġpos":829,"ates":830,"Ġlimit":831,"Ġalways":832,"Ġrequ":833,"Ġob":834,"Ġconnect":835,"are":836,"pro":837,"Ġdes":838,"conception":839,"ither":840,"Ġfound":841,"old":842,"Ġcomm":843,"Ġthemselves":844,"Ġdist":845,"Ġown":846,"Ġcould":847,"Ġknowledge":848,"Ġfac":849,"Ġshould":850,"fect":851,"possible":852,"ari":853,"Ġphilos":854,"Ġfollow":855,"Ġemploy":856,"Ġsay":857,"ici":858,"Ġalthough":859,"Ġseries":860,"ro":861,"Ġwas":862,"Ġobjective":863,"Ġcall":864,"spect":865,"Ġfirst":866,"Ġquest":867,"ish":868,"edom":869,"Ġrational":870,"Ġdifferen":871,"Ġrespect":872,"Ġbeen":873,"with":874,"Ġpur":875,"Ġdisc":876,"Ġrem":877,"other":878,"Ġconsid":879,"ied":880,"Ġcomplete":881,"ink":882,"ach":883,"ine":884,"ĠNow":885,"ÄłÄł":886,"Ġinde":887,"ered":888,"ĠH":889,"Ġsystem":890,"Ġexam":891,"der":892,"Ġact":893,"we":894,"Ġhapp":895,"Ġwhether":896,"Ġthus":897,"Ġfe":898,"uth":899,"Ġen":900,"âĢľ":901,"âĢĿ":902,"ĠThis":903,"Ġext":904,"Ġbelong":905,"ination":906,"Ġfaculty":907,"xim":908,"Ġag":909,"Ġreality":910,"Ġformer":911,"ree":912,"iness":913,"Ġcategor":914,"over":915,"sess":916,"eculative":917,"Ġvery":918,"Ġsynthesis":919,"dic":920,"Ġorder":921,"Ġval":922,"par":923,"Ġsomething":924,"under":925,"Ġmake":926,"Ġlatter":927,"Ġhowever":928,"mit":929,"suous":930,"less":931,"Ġground":932,"Ġwere":933,"uman":934,"med":935,"ciousness":936,"Ġplace":937,"ĠE":938,"Ġunivers":939,"Ġsci":940,"ĠR":941,"stit":942,"ode":943,"ĠâĢľ":944,"Ġnecessity":945,"pose":946,"Ġyou":947,"Ġfreedom":948,"Ġgood":949,"Ġfind":950,"Ġcausality":951,"Ġthose":952,"Ġeffect":953,"by":954,"ha":955,"Ġwhole":956,"ics":957,"adict":958,"ell":959,"Ġter":960,"object":961,"Ġpres":962,"sy":963,"aly":964,"Ġthink":965,"Ġout":966,"ile":967,"ke":968,"preme":969,"ty":970,"Ġdut":971,"Ġexp":972,"Ġquestion":973,"wo":974,"Ġmaxim":975,"Ġsensib":976,"ophy":977,"reason":978,"Ġhuman":979,"Ġpossess":980,"exist":981,"ear":982,"ual":983,"Ġass":984,"igin":985,"Ġam":986,"Ġreal":987,"ove":988,"Ġjust":989,"rough":990,"Ġprodu":991,"Ġappl":992,"Ġent":993,"Ġpow":994,"av":995,"Ġmind":996,"Ġperfect":997,"uten":998,"ĠIf":999,"berg":1000,"oun":1001,"arily":1002,"Ġyet":1003,"Ġmat":1004,"utenberg":1005,"oint":1006,"Ġname":1007,"man":1008,"sen":1009,"Ġcrit":1010,"this":1011,"phys":1012,"Ġsim":1013,"ible":1014,"Ġatt":1015,"Ġspeculative":1016,"edu":1017,"Ġdetermined":1018,"ication":1019,"Ġsubst":1020,"Ġdifferent":1021,"ogit":1022,"ks":1023,"lect":1024,"ĠD":1025,"erest":1026,"iew":1027,"hed":1028,"ceed":1029,"ived":1030,"ince":1031,"lf":1032,"Ġrepresentation":1033,"ural":1034,"Ġsphere":1035,"Ġsynthetical":1036,"ological":1037,"ass":1038,"Ġgreat":1039,"ident":1040,"ble":1041,").":1042,"ike":1043,"Ġtwo":1044,"Ġbas":1045,"cons":1046,"hemat":1047,"Ġmanif":1048,"ory":1049,"Ġfact":1050,"Ġduty":1051,"Ġsec":1052,"ang":1053,"ffici":1054,"Ġvalid":1055,"Ġideas":1056,"roject":1057,"ule":1058,"Ġsensuous":1059,"determin":1060,"rib":1061,"Ġincl":1062,"cogn":1063,"Ġinternal":1064,"Ġimp":1065,"Ġself":1066,"Ġthrough":1067,"Ġdetermination":1068,"Ġshall":1069,"Ġcalled":1070,"Ġword":1071,"Ġscience":1072,"princi":1073,"Ġperception":1074,"ution":1075,"aract":1076,"oo":1077,"conditioned":1078,"Ġview":1079,"Ġorigin":1080,"yp":1081,"ice":1082,"ular":1083,"understanding":1084,"Ġsubjective":1085,"Ġfeel":1086,"aracter":1087,"ĠWe":1088,"Th":1089,"Ġcor":1090,"Ġconstit":1091,"yond":1092,"ful":1093,"there":1094,"finite":1095,"Ġphilosophy":1096,"ogy":1097,"Ġinv":1098,"Ġhig":1099,"eci":1100,"Ġpoint":1101,"Ġpurpose":1102,"Ġest":1103,"ved":1104,"Ġhere":1105,"ĊĊĊ":1106,"Ġrule":1107,"Ġabsolutely":1108,"necess":1109,"usion":1110,"Ġexample":1111,"ted":1112,"Ġnatural":1113,"ents":1114,"Ġconsciousness":1115,"dis":1116,"ange":1117,"Ġmode":1118,"oth":1119,"Ġshow":1120,"Ġwhile":1121,"Ġ_":1122,"Ġuniversal":1123,"ern":1124,"Ġinf":1125,"Ġstill":1126,"Ġeach":1127,"Ġimpossible":1128,"Ġhimself":1129,"iate":1130,"Ġbet":1131,"irect":1132,"Ġcogit":1133,"Ġnecessarily":1134,"Ġphenomenon":1135,"ĠProject":1136,"sion":1137,"can":1138,"Ġexternal":1139,"Ġexpl":1140,"Ġdetermine":1141,"Ġpower":1142,"Ġadmit":1143,"ires":1144,"Ġinterest":1145,"action":1146,"ating":1147,"Ġconnection":1148,"ner":1149,"aphys":1150,"Ġanother":1151,"Ġsens":1152,"Ġleast":1153,"wise":1154,"Ġgive":1155,"Ġactions":1156,"Ġway":1157,"ellig":1158,"Ġintellig":1159,"Ġbeyond":1160,"Ġquite":1161,"Ġrequire":1162,"Ġquant":1163,"ĠGutenberg":1164,"ĠM":1165,"atis":1166,"Ġlike":1167,"Ġwell":1168,"experience":1169,"ĠRe":1170,"ys":1171,"Ġhappiness":1172,"Ġnamely":1173,"Ġkind":1174,"app":1175,"Ġdetermining":1176,"Ġstr":1177,"Ġmanifold":1178,"ught":1179,"Ġnor":1180,"Ġeither":1181,"Ġourselves":1182,"Ġap":1183,"Ġhand":1184,"ances":1185,"Ġcontains":1186,"abl":1187,"tic":1188,"Ġcategories":1189,"age":1190,"Ġwhere":1191,"ccess":1192,"its":1193,"Ġindeed":1194,"Ġconsider":1195,"Ġcharacter":1196,"Ġdem":1197,"Ġlimits":1198,"ra":1199,"Ġconc":1200,"Ġappear":1201,"atisf":1202,"phenomen":1203,"othe":1204,"Ġproceed":1205,"Ġrest":1206,"Ġanaly":1207,".,":1208,"Ġstate":1209,"empt":1210,"gin":1211,"ingu":1212,"ook":1213,"Ġmorality":1214,"ize":1215,"gum":1216,"Ġref":1217,"fficient":1218,"ious":1219,"reg":1220,"Ġterm":1221,"Ġdiv":1222,"Ġsum":1223,"ev":1224,"Ġcommon":1225,"pposition":1226,"Ġcontrary":1227,"ark":1228,"ypothe":1229,"ology":1230,"und":1231,"ring":1232,"Ġproof":1233,"ĠL":1234,"Ġnotion":1235,"much":1236,"Ġcomp":1237,"Ġadv":1238,"Ġsee":1239,"ished":1240,"Ġcontradict":1241,"Ġmatter":1242,"Ġdedu":1243,"contr":1244,"ĠThus":1245,"akes":1246,"Ġable":1247,"Ġassum":1248,"Ġfree":1249,"Ġfollows":1250,"Ġfeeling":1251,"ER":1252,"Ġres":1253,"ference":1254,"But":1255,"Ġsupreme":1256,"Ġconce":1257,"existence":1258,"Ġconcl":1259,"Ġrepresentations":1260,"conceptions":1261,"lu":1262,"ably":1263,"ences":1264,"Ġought":1265,"ĊĊĠĠĠĠĠĠĠĠĠĠĠĠĠĠĠĠ":1266,"Ġsecond":1267,"sible":1268,"Ġtrue":1269,"Ġtruth":1270,"Ġboth":1271,"Ġremain":1272,"Ġ1":1273,"pendent":1274,"icism":1275,"Ġmost":1276,"stru":1277,"Ġhad":1278,"mediate":1279,"Ġdec":1280,"from":1281,"Ġsince":1282,"Ġtake":1283,"ĠU":1284,"Ġdistin":1285,"ives":1286,"ĠReason":1287,"fter":1288,"ten":1289,"Ġmet":1290,"Ġparts":1291,"Ġpresu":1292,"Ġsensibility":1293,"icular":1294,"Ġsubstance":1295,"fic":1296,"Ġill":1297,"irm":1298,"acc":1299,"ween":1300,"Ġmuch":1301,"lear":1302,"Ġbegin":1303,"Ġmight":1304,"Ġbeings":1305,"Ġmanner":1306,"Ġregards":1307,"Ġattain":1308,"Ġsupp":1309,"Ġpredic":1310,"asmuch":1311,"Ġlogical":1312,"Ġexpress":1313,"Ġconsist":1314,"Ġphys":1315,"Ġwork":1316,"Ġcontent":1317,"Ġnow":1318,"onstr":1319,"In":1320,"intuition":1321,"Ġi":1322,"Ġregarded":1323,"Ġer":1324,"Ġmade":1325,"ited":1326,"Ġtot":1327,"Ġdirect":1328,"Ġbefore":1329,"Ġfoundation":1330,"aid":1331,"ma":1332,"Ġaim":1333,"Ġconf":1334,"but":1335,"represent":1336,"Ġmathemat":1337,"hest":1338,"pend":1339,"Ġdiscover":1340,"osm":1341,"pposed":1342,"ÄłÄłÄłÄł":1343,"ving":1344,"Ġcl":1345,"Ġmot":1346,"sub":1347,"Ġaff":1348,"Ġargum":1349,"Ġunconditioned":1350,"estig":1351,"pond":1352,"Ġconcept":1353,"oid":1354,"tm":1355,"Ġhypothe":1356,"Ġexists":1357,"Ġconsidered":1358,"ision":1359,"Ġ[":1360,"ene":1361,"Ġconditioned":1362,"atic":1363,"respond":1364,"son":1365,"Ġjudgements":1366,"Ġbetween":1367,"Ġquantity":1368,"oub":1369,"rel":1370,"lement":1371,"Ġothers":1372,"Ġabove":1373,"ĠAnd":1374,"empirical":1375,"ĠCon":1376,"red":1377,"Ġproble":1378,"ĠOn":1379,"ath":1380,"know":1381,"wor":1382,"ward":1383,"asure":1384,"ogic":1385,"Ġsatisf":1386,"Ġthough":1387,"cise":1388,"Ġind":1389,"Ġdeg":1390,"Ġpropositions":1391,"principle":1392,"nat":1393,"Ġple":1394,"pable":1395,"Ġconform":1396,"ĠOf":1397,"ized":1398,"EN":1399,"OO":1400,"Ġsuccess":1401,"Ġdefin":1402,"Ġset":1403,"ialect":1404,"Ġworth":1405,"utes":1406,"Ġstand":1407,"only":1408,"omy":1409,"ules":1410,"ON":1411,"iqu":1412,"sert":1413,"raph":1414,"TI":1415,"Ġarr":1416,"Ġac":1417,"Ġclear":1418,"Ġsimple":1419,"Ġbased":1420,"oretical":1421,"Ġans":1422,"practical":1423,"Ġsour":1424,"Ġup":1425,"agraph":1426,"read":1427,"aken":1428,"Ġdesire":1429,"Ġagain":1430,"unction":1431,"being":1432,"Ġright":1433,"ĠPure":1434,"Ġhighest":1435,"crib":1436,"thod":1437,"Ġel":1438,"odu":1439,"Ġimper":1440,"Ġregress":1441,"Ġestabl":1442,"ife":1443,"Ġemployed":1444,"Ġocc":1445,"them":1446,"ning":1447,"Ġed":1448,"law":1449,"matical":1450,"cont":1451,"Ġder":1452,"Ġmany":1453,"Ġextend":1454,"Ġcognitions":1455,"Ġcauses":1456,"ignif":1457,"ep":1458,"perception":1459,"Ġobser":1460,"mon":1461,"Ġleg":1462,"Ġconcern":1463,",âĢĿ":1464,"ĠGod":1465,"ental":1466,"Ġansw":1467,"opher":1468,"theless":1469,"Ġimag":1470,"avour":1471,"cognition":1472,"Ġchange":1473,"Ġcompletely":1474,"Ġinasmuch":1475,"Ġanything":1476,"ique":1477,"trib":1478,"certain":1479,"Ġafter":1480,"ount":1481,"Ġdistingu":1482,"Ġrules":1483,"Ġpresented":1484,"Ġsole":1485,"Ġperson":1486,"Ġinfinite":1487,"Ġconsequ":1488,"Ġexer":1489,"Ġbelongs":1490,"Ġmaxims":1491,"Ġmetaphys":1492,"ude":1493,"Ġes":1494,"mum":1495,"tle":1496,"It":1497,"Ġseem":1498,"Ġparticular":1499,"Ġneed":1500,"Ġemployment":1501,"must":1502,"Ġrequires":1503,"phenomena":1504,"irt":1505,"ention":1506,"Ġgu":1507,"Ġconnected":1508,"mis":1509,"Ġnum":1510,"urn":1511,"Ġresult":1512,"ather":1513,"Ġmod":1514,"Ġlife":1515,"Ġimmediate":1516,"Ġmyself":1517,"therefore":1518,"necessary":1519,"Ġant":1520,"ection":1521,"Ġfin":1522,"Ġaccord":1523,"Ġends":1524,"Ġconting":1525,"onum":1526,"Ġwant":1527,"Ġgrounds":1528,"Ġentire":1529,"hence":1530,"luence":1531,"hes":1532,"Ġindic":1533,"OOK":1534,"Ġeverything":1535,"Ġvalidity":1536,"cy":1537,"Ġapplication":1538,"Ġsystematic":1539,"Ġattempt":1540,"Ġreally":1541,"ides":1542,"Ġsc":1543,"mere":1544,"Ġcop":1545,"BOOK":1546,"ourse":1547,"Ġneg":1548,"arr":1549,"Ġintuitions":1550,"part":1551,"subject":1552,"HA":1553,"pect":1554,"Ġ\"":1555,"oul":1556,"aim":1557,"ĠĠĠĠĠĠĠĠĠĠĠĠĠĠĠĠĠĠĠĠĠĠĠĠ":1558,"possibility":1559,"This":1560,"Ġinvestig":1561,"Ġtotality":1562,"how":1563,"Ġnew":1564,"oubt":1565,"Ġmain":1566,"contradict":1567,"Ġing":1568,"come":1569,"Ġcorrespond":1570,"'s":1571,"lig":1572,"Ġelement":1573,"Ġintelligible":1574,"AL":1575,"Ġread":1576,"duct":1577,"ase":1578,"Ġside":1579,"Ġbod":1580,"do":1581,"Ġassert":1582,"Ġmethod":1583,"Ġcommand":1584,"raw":1585,"itself":1586,"Ġbonum":1587,"Ġlogic":1588,"conditions":1589,"Ġcontained":1590,"Ġdegree":1591,"isl":1592,"ob":1593,"ps":1594,"Ġmean":1595,"Ġeas":1596,"ension":1597,"Ġphysical":1598,");":1599,"ov":1600,"Ġrather":1601,"Ġvirt":1602,"ctr":1603,"Ġless":1604,"ĠTH":1605,"Ġthereby":1606,"Ġphilosopher":1607,"without":1608,"manent":1609,"Ġsenses":1610,"Ġover":1611,"Ġut":1612,"Ġbelie":1613,"Ġimport":1614,"Ġmen":1615,"If":1616,"go":1617,"Ġwords":1618,"ready":1619,"ogress":1620,"unity":1621,"Ġhence":1622,"erial":1623,"bec":1624,"ane":1625,"ided":1626,"transcendental":1627,"We":1628,"ily":1629,"aking":1630,"Ġsol":1631,"Ġdog":1632,"Ġotherwise":1633,"TER":1634,"ities":1635,"Ġnon":1636,"Ġspeci":1637,"Ġerr":1638,"synthe":1639,"mor":1640,"Ġlong":1641,"paragraph":1642,"Ġdemonstr":1643,"Ġabstr":1644,"Ġhold":1645,"Ġattrib":1646,"Ġanswer":1647,"Ġrelations":1648,"Ġremains":1649,"bit":1650,"anation":1651,"Ġequ":1652,"nature":1653,"Ġ^":1654,"Ġ{":1655,"ises":1656,"Ġideal":1657,"Ġsignif":1658,"Ġsoul":1659,"atever":1660,"Ġindependent":1661,"Ġbasis":1662,"Ġsummum":1663,"Ġco":1664,"Ġperfectly":1665,"Ġtheoretical":1666,"Ġpost":1667,"Ġexcept":1668,"ĠThere":1669,"Ġformal":1670,"ĠThat":1671,"Ġproblem":1672,"Ġaccordance":1673,"Ġentirely":1674,"CHA":1675,"dom":1676,"gr":1677,"ĠPr":1678,"ĠSu":1679,"PTER":1680,"Ġmem":1681,"Ġneither":1682,"Ġcontin":1683,"uthor":1684,"Ġsensible":1685,"comple":1686,"Ġproperly":1687,"Ġinfluence":1688,"eing":1689,"Ġtoo":1690,"ually":1691,"although":1692,"Ġbound":1693,"Ġever":1694,"Ġconduct":1695,"Ġgives":1696,"ĠHence":1697,"Ġthinking":1698,"Ġnumber":1699,"Ġher":1700,"ency":1701,"iar":1702,"rect":1703,"Ġinqu":1704,"men":1705,"Ġexplain":1706,"ause":1707,"Ġess":1708,"ceive":1709,"Ġbecome":1710,"Ġalready":1711,"Ãĥ":1712,"Ġsufficient":1713,"ail":1714,"ases":1715,"Ġdiffic":1716,"osmological":1717,"Ġsaid":1718,"priori":1719,"Ġprev":1720,"CHAPTER":1721,"mall":1722,"Â§":1723,"ceived":1724,"ranscendental":1725,"will":1726,"Ġaccount":1727,"ĠOF":1728,"Ġexercise":1729,"Ġvirtue":1730,"any":1731,"hension":1732,"Ġident":1733,"dist":1734,"Ġpleasure":1735,"Ġforms":1736,"inations":1737,"Ġdoubt":1738,"Ġdetermines":1739,"Ġdistinction":1740,"Ġ2":1741,"Ġprov":1742,"ĠII":1743,"pure":1744,"Ġop":1745,"Ġinst":1746,"Ġmis":1747,"irc":1748,"Ġexpect":1749,"Ġtaken":1750,"Ġdialect":1751,"Ġhar":1752,"Ġhop":1753,"cedure":1754,"Ġproduce":1755,"Ġcogitated":1756,"eculiar":1757,"lectual":1758,"Ġpass":1759,"Ġpreced":1760,"Ġargument":1761,"Ġden":1762,"Ġprove":1763,"Ġdeduction":1764,"Ġelse":1765,"Ġappre":1766,"oc":1767,"Ġmaterial":1768,"ext":1769,"up":1770,"Ġce":1771,"Ġabout":1772,"Ġconstru":1773,"oundation":1774,"ĠAs":1775,"Ġapply":1776,"sensible":1777,"Ġerror":1778,"itive":1779,"ÃĥÄ":1780,"Ġrender":1781,"Ġcourse":1782,"Ġoblig":1783,"Now":1784,"time":1785,"Ġaffect":1786,"Ġmakes":1787,"Ġprogress":1788,"Ġgener":1789,"ulties":1790,"Ġremark":1791,"ĊĊĠĠĠĠĠĠĠĠĠĠĠĠĠĠĠĠĠĠĠĠĠĠĠĠĠĠĠĠĠĠĠĠĠĠĠĠĠĠĠĠ":1792,"Ġbeginning":1793,"Ġallow":1794,"ties":1795,"Ġlies":1796,"Ġlimited":1797,"urther":1798,"ĠĠĠ":1799,"Ġprom":1800,"Ġdepend":1801,"ability":1802,"Ġvari":1803,"objects":1804,"consciousness":1805,"regard":1806,"Ġpredicate":1807,"because":1808,"antage":1809,"Ġfall":1810,"Ġsuper":1811,"Ġconscious":1812,"Ġapplied":1813,"uted":1814,"consequently":1815,"ĠBeing":1816,"cannot":1817,"Ġassume":1818,"Ġconsists":1819,"Ġimperative":1820,"Ġcopy":1821,"sych":1822,"sim":1823,"Ġaw":1824,"Ġchang":1825,"Ġaid":1826,"Ġcognize":1827,"these":1828,"ppose":1829,"Ġexisting":1830,"pposite":1831,"Ġnevertheless":1832,"Ġquestions":1833,"have":1834,"bl":1835,"Ġlook":1836,"dequ":1837,"ĠTHE":1838,"**":1839,"dif":1840,"Ġcapable":1841,"ield":1842,"Ġlegisl":1843,"ne":1844,"Ġpeculiar":1845,"they":1846,"Ġshown":1847,"Ġexplanation":1848,"Ġmaintain":1849,"Ġpath":1850,"ically":1851,"ined":1852,"Ġdraw":1853,"nt":1854,"onic":1855,"ÃĦÅĤÃĦÅĤ":1856,"imate":1857,"Ġdivision":1858,".âĢĿ":1859,"hema":1860,"Ġfal":1861,"Ġwhose":1862,"Ġinclinations":1863,"principles":1864,"Ġhigher":1865,"Ġaffirm":1866,"Ġimagination":1867,"Ġsolely":1868,"merely":1869,"ctrine":1870,"inte":1871,"For":1872,"connect":1873,"disc":1874,"Ġunderstand":1875,"Ġaddition":1876,"Ġreference":1877,"Ġwhatever":1878,"Ġpurely":1879,"Ġfollowing":1880,"Ġdifference":1881,"Ġcontradiction":1882,"overed":1883,"ogism":1884,"absolute":1885,"ont":1886,"would":1887,"Ġprocedure":1888,"ĠSupreme":1889,"RE":1890,"ulative":1891,"strict":1892,"ave":1893,"Ġav":1894,"cor":1895,"objective":1896,"teness":1897,"their":1898,"Ġadd":1899,"Ġagre":1900,"ia":1901,"Ġwithin":1902,"Ġtermed":1903,"wards":1904,"Ġharmon":1905,"Ġly":1906,"poses":1907,"io":1908,"some":1909,"Ġund":1910,"ull":1911,"des":1912,"hib":1913,"Ġworks":1914,"Ġyour":1915,"_,":1916,"ĠY":1917,"Ġwish":1918,"Ġcirc":1919,"Ġspe":1920,"Ġevident":1921,"Ġhappens":1922,"Ġillusion":1923,"Ġhypothesis":1924,"Ġsource":1925,"eavour":1926,"ni":1927,"oumen":1928,"dequate":1929,"Ġintel":1930,"giv":1931,"Ġbr":1932,"every":1933,"onomy":1934,"ĠeB":1935,"Ġdone":1936,"Ġcertainly":1937,"Ġeffects":1938,"Ġinclination":1939,"Ġanalytical":1940,"Ġdefinition":1941,"Ġcontingent":1942,"Ġfalse":1943,"Äłin":1944,"orough":1945,"lectr":1946,"what":1947,"happ":1948,"right":1949,"posed":1950,"Ġcogitate":1951,"whether":1952,"Ġsmall":1953,"Ġagainst":1954,"Ġhope":1955,"cing":1956,"lar":1957,"haps":1958,"Ġrelate":1959,"according":1960,"ting":1961,"Ġfurther":1962,"Ġconj":1963,"Ġdid":1964,"Ġpermanent":1965,"Ġrepresented":1966,"Ġcategory":1967,"moral":1968,"sh":1969,"philos":1970,"ential":1971,"amental":1972,"Ġcertainty":1973,"les":1974,"own":1975,"Ġdemand":1976,"Ġempirically":1977,"Ġextension":1978,"determination":1979,"undamental":1980,"Ġimmediately":1981,"Ġschema":1982,"Ġnegative":1983,"ix":1984,"Ġsing":1985,"Ġvol":1986,"00":1987,"Ġign":1988,"imes":1989,"categor":1990,"oph":1991,"sist":1992,"etaphys":1993,"proposition":1994,"Ġintellectual":1995,"Ġte":1996,"Ġopposite":1997,"ĠTo":1998,"usions":1999,"ĠThey":2000,"Ġjustif":2001,"Ġsubstances":2002,"Ġsensation":2003,"Ġmathematics":2004,"relation":2005,"ivid":2006,"ption":2007,"Ġjud":2008,"consid":2009,"ply":2010,"idence":2011,"Ġfut":2012,"Ġdistinct":2013,"br":2014,"Ġtreat":2015,"erse":2016,"Ġbring":2017,"ĠTranscendental":2018,"ritique":2019,"Ġperfection":2020,"Ġconclusion":2021,"Ġclaim":2022,"Ġconsequence":2023,"Ġinquir":2024,"ck":2025,"fer":2026,"yn":2027,"Ġoper":2028,"complete":2029,"Ġspring":2030,"Ġendeavour":2031,"Ġadvantage":2032,"ses":2033,"Ġintr":2034,"ĠAn":2035,"pposes":2036,"Ġproperties":2037,"Ġperceptions":2038,"knowledge":2039,"Ġconformity":2040,"Ġful":2041,"oment":2042,"llig":2043,"pres":2044,"Ġconv":2045,"Ġserve":2046,"judgement":2047,"ised":2048,"Ġcorrect":2049,"even":2050,"ead":2051,"ittle":2052,"Ġthree":2053,"Ġthorough":2054,"such":2055,"ĠAll":2056,"Ġaccordingly":2057,"Ġbelonging":2058,"representations":2059,"Ġseems":2060,"limit":2061,"ared":2062,"call":2063,"tog":2064,"Ġpret":2065,"RA":2066,"inde":2067,"Ġet":2068,"imal":2069,"ird":2070,"ogene":2071,"Ġabs":2072,"Ġdistrib":2073,"toge":2074,"Ġrelates":2075,"Ġvalue":2076,"Ġrests":2077,"ishes":2078,"Ġpar":2079,"Ġfunction":2080,"Ġanal":2081,"Ġlie":2082,"Ġdeterminations":2083,"things":2084,"Ġdisposition":2085,"Ġcho":2086,"Ġproperty":2087,"Ġpossesses":2088,"Ġamong":2089,"themselves":2090,"Ġeasily":2091,"lectronic":2092,"together":2093,"asion":2094,"sensuous":2095,"EC":2096,"odeict":2097,"Ġbody":2098,"Ġapprehension":2099,"hat":2100,"Ġobtain":2101,"Ġagreement":2102,"gan":2103,"Ġdiscovered":2104,"ĠHe":2105,"Ġextent":2106,"Ġcriter":2107,"Ġconceive":2108,"ĊĊĠĠĠĠĠĠĠĠĠĠĠĠĠĠĠĠĠĠĠĠĠĠĠĠĠĠĠĠĠĠĠĠĠĠĠĠĠĠĠĠĠ":2109,"ap":2110,"All":2111,"ior":2112,"lection":2113,"Äłc":2114,"Ġknown":2115,"exam":2116,"ack":2117,"Ġpowers":2118,"Ġinvol":2119,"where":2120,"Ġcases":2121,"always":2122,"Äłs":2123,"Äłre":2124,"Ġthereof":2125,"ĠFoundation":2126,"uded":2127,"Ġevent":2128,"Ġcriticism":2129,"Ġinfer":2130,"Ġapperception":2131,"ĠConsequently":2132,"Ġchanges":2133,"Ġfuture":2134,"Ġmed":2135,"hil":2136,"ilar":2137,"no":2138,"leg":2139,"ech":2140,"ĠÂ§":2141,"Ġproved":2142,"ood":2143,"Ġintu":2144,"Ġdeterminate":2145,"Ġcritical":2146,"bitr":2147,"Ġignor":2148,"Ġauthor":2149,"comm":2150,"Ġactual":2151,"Ġterms":2152,"proc":2153,"peci":2154,"Ġstrict":2155,"ynam":2156,"Ġlead":2157,"subst":2158,"world":2159,"Ġcontinu":2160,".[":2161,"pur":2162,"Ġnoumen":2163,"Ġlittle":2164,"Ġdoctrine":2165,"Ġexpression":2166,"Ġmathematical":2167,"Ġderived":2168,"Ġinvestigation":2169,"given":2170,"AR":2171,"pens":2172,"iverse":2173,"ividual":2174,"requ":2175,"Ġante":2176,"ower":2177,"Ġcompar":2178,"Ġconceived":2179,"intellig":2180,"IS":2181,"ensive":2182,"ĠUn":2183,"TION":2184,"may":2185,"esides":2186,"Ġmoment":2187,"Ġnay":2188,"Ġdynam":2189,"imp":2190,"Ġsupposed":2191,"Äłf":2192,"Ġhaving":2193,"Ġregulative":2194,"Ġconstitutes":2195,"Ġelements":2196,"does":2197,"Ġmember":2198,"just":2199,"rational":2200,"hend":2201,"Ġask":2202,"llogism":2203,"ferent":2204,"bel":2205,"ÄłÄłÄłÄłÄłÄłÄłÄł":2206,"atement":2207,"Ġsupport":2208,"nit":2209,"ĊĠĠĠĠ":2210,"reedom":2211,"Ġinfin":2212,"ended":2213,"ĠThese":2214,"sufficient":2215,"aces":2216,"Ġanalysis":2217,"Ġsuccession":2218,"Ġestablished":2219,"Ġdifficulty":2220,"ÃĥÄ¦":2221,"dem":2222,"Ġsolution":2223,"Ġtrans":2224,"ordin":2225,"Ġcompleteness":2226,"ĠEx":2227,"Ġseek":2228,"ru":2229,"Ġsch":2230,"Ġfield":2231,"Ġexhib":2232,"Ġarises":2233,"Ġrequired":2234,"Ġaims":2235,"Ġmotive":2236,"Ġarguments":2237,"Ġestablish":2238,"Ġdistinguish":2239,"Ġmetaphysics":2240,"however":2241,"Ġcorresponding":2242,"rem":2243,"att":2244,"caus":2245,"Ġins":2246,"fe":2247,"ole":2248,"Ġrecogn":2249,"Ġprof":2250,"Ġcomb":2251,"ety":2252,"Ġdiscus":2253,"Ġpain":2254,"iving":2255,"Ġexcl":2256,"Ġspont":2257,"Ġvain":2258,"Ġrequis":2259,"Ġapart":2260,"Ġdirectly":2261,"Ġsources":2262,"Ġdogmatical":2263,"Ġprevious":2264,"Ġsingle":2265,"Ġspontane":2266,"Ġ3":2267,"quest":2268,"row":2269,"never":2270,"Ġregarding":2271,"Ġcognized":2272,"Ġdesign":2273,"Ġobserv":2274,"Ġanteced":2275,"inomy":2276,"Ġonce":2277,"Ġsupposition":2278,"Ġhel":2279,"Ġperhaps":2280,"ĠCritique":2281,"Ġenough":2282,"Ġuniversality":2283,"Ġgreatest":2284,"Thus":2285,"Ġintelligence":2286,"istic":2287,"Ġtoge":2288,"Ġbecom":2289,"arn":2290,"synthetical":2291,"Ġtogether":2292,"most":2293,"Ä¤":2294,"Ġtakes":2295,"ingdom":2296,"Ġtranscendent":2297,"Ġke":2298,"Ġevil":2299,"Ġsatisfaction":2300,"Ġabstract":2301,"ophical":2302,"IN":2303,"inion":2304,"Ġcosmological":2305,"ask":2306,"ĠIde":2307,"Ġcompre":2308,"ĠSuch":2309,"eculation":2310,"Ġpresents":2311,"Ġfaculties":2312,"Ġcategorical":2313,"Ġlikewise":2314,"representation":2315,"Ġsuccessive":2316,"Ġsupersensible":2317,"Ġdynamical":2318,"Ãħ":2319,"Ġcome":2320,"comp":2321,"appl":2322,"Ġbl":2323,"Ġul":2324,"vel":2325,"ÃħÄ¤":2326,"ising":2327,"respect":2328,"name":2329,"Ġ5":2330,"ÃĥÄ¦ÃħÄ¤":2331,"general":2332,"igh":2333,"ivity":2334,"nothing":2335,"oriz":2336,"Ġpursu":2337,"Ġoccup":2338,"Ġmeaning":2339,"Section":2340,"incl":2341,"Ġthird":2342,"Ġdon":2343,"Ġsur":2344,"Ġaltogether":2345,"ĠAr":2346,"proper":2347,"elled":2348,"Ġproduced":2349,"Ġconstitution":2350,"Ġbetter":2351,"Ġsuppose":2352,"Ġdialectical":2353,"Ġpreceding":2354,"ense":2355,"icable":2356,"Ġfore":2357,"separ":2358,"Ġra":2359,"appear":2360,"nihil":2361,"ft":2362,"follow":2363,"Ġey":2364,"abour":2365,"Ġdestr":2366,"Ġrestrict":2367,"ific":2368,"atively":2369,"system":2370,"Ġapodeict":2371,"Ġoften":2372,"Ġpsych":2373,"Ġelectronic":2374,"Ġdel":2375,"capable":2376,"ensions":2377,"Ġhumanity":2378,"sense":2379,"Ġcritique":2380,"Ġpredicates":2381,"Ġconstruct":2382,"Ġharmony":2383,"Ġintrodu":2384,"called":2385,"produ":2386,"Ġappro":2387,"II":2388,"itum":2389,"icip":2390,"ogeneous":2391,"ines":2392,"consist":2393,"Ġmanifest":2394,"Ġappearance":2395,"Ġadvance":2396,"Ġ*":2397,"ĠV":2398,"Ġopposition":2399,"Ġfull":2400,"uting":2401,"Ġexact":2402,"conf":2403,"Ġunless":2404,"Ġkingdom":2405,"Ġstates":2406,"uding":2407,"Ġprecept":2408,"Ġarise":2409,"Ġrefer":2410,"Ġimportance":2411,"Ġaffected":2412,"Ġrequisite":2413,"sum":2414,"Ġche":2415,"ctive":2416,"ES":2417,"Äłp":2418,"ometr":2419,"ium":2420,"ments":2421,"thought":2422,"cre":2423,"ubl":2424,"inv":2425,"Ġessential":2426,"has":2427,"Ġsort":2428,"Ġlast":2429,"Ġvoid":2430,"space":2431,"ĠSp":2432,"Ġobjectively":2433,"Ġsimply":2434,"Ġdecl":2435,"contradiction":2436,"Ġreader":2437,"Ġattribute":2438,"Ġbounds":2439,"something":2440,"Ġcircum":2441,"Ġcriterion":2442,"pecially":2443,"Ġhelp":2444,"Ġens":2445,"ison":2446,"Ġear":2447,"employ":2448,"univers":2449,"iction":2450,"Ġlet":2451,"ENT":2452,"idance":2453,"Ġge":2454,"Ġro":2455,"Ġagree":2456,"consider":2457,"quant":2458,"Ġorgan":2459,"ccording":2460,"Ġfinite":2461,"bers":2462,"Ġadequate":2463,"Äłd":2464,"Ġarbitr":2465,"Ġappears":2466,"Ġbelief":2467,"ĠPrinci":2468,"ĠJ":2469,"alone":2470,"utonomy":2471,"Ġsoon":2472,"Ġleave":2473,"Ġmoreover":2474,"means":2475,"formation":2476,"Ġactually":2477,"determined":2478,"Ġconstitute":2479,"Ġadmitted":2480,"Ġconcepts":2481,"Ġindividual":2482,"laws":2483,"Ġabstraction":2484,"Ġsignific":2485,"Ġpostul":2486,"Ġaway":2487,"namely":2488,"TH":2489,"sc":2490,"perfect":2491,"place":2492,"ying":2493,"Ġline":2494,"distingu":2495,"Ġavoid":2496,"RO":2497,"then":2498,"cribe":2499,"latter":2500,"ĠK":2501,"atum":2502,"ciproc":2503,"ĠRE":2504,"pe":2505,"Ġinev":2506,"urd":2507,"constit":2508,"ooks":2509,"echan":2510,"Ġinevit":2511,"love":2512,"reality":2513,"Ġfurn":2514,"Ġfundamental":2515,"ceptions":2516,"contain":2517,"Ġuniverse":2518,"ĠBy":2519,"ĠSection":2520,"mathemat":2521,"Ġpositive":2522,"Ġplaced":2523,"Ġgreater":2524,"Ġoriginal":2525,"necessity":2526,"Ġpresuppose":2527,"known":2528,"Ġconjunction":2529,"Ġvolition":2530,"Äłm":2531,"Ġsepar":2532,"ae":2533,"Ġ4":2534,"iter":2535,"RAN":2536,"ages":2537,"ool":2538,"Ġtest":2539,"utive":2540,"Ġcare":2541,"speculative":2542,"Ġdeser":2543,"worth":2544,"Ġcreat":2545,"ote":2546,"ĠĠĠĠĠĠĠ":2547,"pty":2548,"olly":2549,"alytic":2550,"Ġconcre":2551,"phenomenon":2552,"Ġphilosophers":2553,"Ġidentical":2554,"Ġvarious":2555,"ip":2556,"metaphys":2557,"phist":2558,"apt":2559,"ren":2560,"iber":2561,"sibility":2562,"CE":2563,"There":2564,"Ġoff":2565,"ffort":2566,"Ġposition":2567,"Ġutter":2568,"ins":2569,"Ġimportant":2570,"ground":2571,"Ġetc":2572,"div":2573,"freedom":2574,"itle":2575,"Ġwit":2576,"cience":2577,"possess":2578,"Ġevents":2579,"Ġdisp":2580,"Ġuseful":2581,"Ġfounded":2582,"Ġexamination":2583,"mitted":2584,"Ġdeduced":2585,"Ġmotives":2586,"Ġclearly":2587,"Ġdistinguished":2588,"Ġindicates":2589,"synthesis":2590,"Ġbrought":2591,"happiness":2592,"categories":2593,"urs":2594,"arch":2595,"Äłun":2596,"hetic":2597,"Ġcre":2598,"gg":2599,"Ġcarr":2600,"Ġscept":2601,"Ġfa":2602,"ures":2603,"Ġclaims":2604,"cogit":2605,"my":2606,"upon":2607,"ÄĬ":2608,"Ġtask":2609,"Ġwis":2610,"Ġunable":2611,"Ġspeculation":2612,"Ġperceive":2613,"Ġstatement":2614,"ourselves":2615,"Ġlearn":2616,"Ġleft":2617,"Ġacting":2618,"Ġsciences":2619,"Ġpossession":2620,"Ġattention":2621,"Ġconsideration":2622,"Ġhypothetical":2623,"Ġaccept":2624,"Ġacqu":2625,"Ġresults":2626,"Ġcopyright":2627,"Ġspeak":2628,"ĠeBook":2629,"Ġeyes":2630,"Every":2631,"etermin":2632,"val":2633,"speci":2634,"opt":2635,"ven":2636,"fac":2637,"gu":2638,"him":2639,"tun":2640,"Ġput":2641,"Ġsuffici":2642,"ublic":2643,"Ġtheology":2644,"Ġdeterminable":2645,"Ġwhom":2646,"Ġwholly":2647,"Ġgen":2648,"ends":2649,"ĊĊĊĊ":2650,"Ġadopt":2651,"Ġmorals":2652,"Ġinterests":2653,"Ġpresupposes":2654,"Ġdirected":2655,"Ġstands":2656,"Ġconsequences":2657,"Ġantinomy":2658,"connection":2659,"Ġbecomes":2660,"lict":2661,"ously":2662,"tot":2663,"xi":2664,"think":2665,"change":2666,"presu":2667,"Ġstep":2668,"Ġsimilar":2669,"Ġopp":2670,"Ġmental":2671,"arks":2672,"Ġforce":2673,"Ġgain":2674,"Ġdrawn":2675,"pic":2676,"ĠÃ":2677,"Ġfavour":2678,"Ġlight":2679,"ending":2680,"his":2681,"ĊĠĠĠĠĠĠĠĠ":2682,"ishing":2683,"Ġcosm":2684,"Ġempty":2685,"unconditioned":2686,"ĠSt":2687,"ortion":2688,"Ġlimitation":2689,"Ġdesires":2690,"Ġexamples":2691,"Ġenable":2692,"Ġmotion":2693,"Ġproblematical":2694,"Ġespecially":2695,"Ġguidance":2696,"mission":2697,"Ġindicate":2698,"Ġattempts":2699,"Ġbodies":2700,"Ġlegislation":2701,"absolutely":2702,"question":2703,"Ġapodeictic":2704,"Ġcircumst":2705,"Ġsignificance":2706,"Ġconcreto":2707,"IT":2708,"ively":2709,"Ġold":2710,"izing":2711,"Ġation":2712,"nderstanding":2713,"Ġaccom":2714,"Ġfig":2715,"Ġprop":2716,"posite":2717,"END":2718,"cribed":2719,"more":2720,"rop":2721,"atives":2722,"stood":2723,"ume":2724,"Ġoccasion":2725,"?âĢĿ":2726,"inction":2727,"Ġopposed":2728,"Ġsure":2729,"ured":2730,"Ġdefinite":2731,"series":2732,"Ġpurposes":2733,"pendence":2734,"Ġconcerns":2735,"Ġcommands":2736,"Ġdogmat":2737,"Ġinstead":2738,"Ġobliged":2739,"Ġdepends":2740,"ĠYou":2741,"philosophy":2742,"Ġjustified":2743,"Ġjudge":2744,"Ġschool":2745,"Ġinsight":2746,"Ġarbitrary":2747,"oly":2748,"satisf":2749,"analy":2750,"aint":2751,"interest":2752,"IC":2753,"origin":2754,"avoid":2755,"arent":2756,"conform":2757,"used":2758,"Ġphilosophical":2759,"Ġhappen":2760,"Ġdestroy":2761,"Ġgeometr":2762,"When":2763,"into":2764,"Ġreach":2765,"Ġdat":2766,"Ġwhy":2767,"Ġhigh":2768,"Ġforth":2769,"ibility":2770,"Ġsyllogism":2771,"Ġphenomenal":2772,"ached":2773,"predic":2774,"ĠWhen":2775,"Ġcommunity":2776,"manence":2777,"Ġsubjectively":2778,"Ġmodes":2779,"contradictory":2780,"Ġassertions":2781,"Ġeasy":2782,"Ġbelieve":2783,"Ġchoice":2784,"belong":2785,"iterary":2786,"Ġwisdom":2787,"icense":2788,"kind":2789,"Ġta":2790,"Ġinter":2791,"demonstr":2792,"Ġtimes":2793,"pline":2794,"should":2795,"ms":2796,"Ġir":2797,"Ġwise":2798,"iment":2799,"ately":2800,"udes":2801,"free":2802,"timate":2803,"Ġsought":2804,"angement":2805,"Ġconver":2806,"Ġsubtle":2807,"eduction":2808,"good":2809,"Ġkeep":2810,"Gutenberg":2811,"To":2812,"either":2813,"ged":2814,"same":2815,"Ġfr":2816,"Ġeffort":2817,"Ġdom":2818,"Ġprior":2819,"impossible":2820,"iding":2821,"cipline":2822,"chive":2823,"pposing":2824,"Ġrespecting":2825,"Ġuniversally":2826,"Ġfinds":2827,"Ġwhereby":2828,"Ġreflection":2829,"Ġderive":2830,"Ġextended":2831,"Ġidentity":2832,"Ġopinion":2833,"Ġconstruction":2834,"Ġgenerally":2835,"different":2836,"causality":2837,"Ġinevitably":2838,"faculty":2839,"cess":2840,"imin":2841,"success":2842,"ÃĦÅĤÃĦÅĤÃĦÅĤÃĦÅĤ":2843,"ENTAL":2844,"jud":2845,"sens":2846,"asing":2847,"than":2848,"Ġart":2849,"emark":2850,"prov":2851,"Ġfully":2852,"real":2853,"Ġcoun":2854,"Ġpe":2855,"character":2856,"purpose":2857,"Ġmag":2858,"adv":2859,"could":2860,"ĊĠ":2861,"Ġautonomy":2862,"Ġcol":2863,"also":2864,"Ġincapable":2865,"Ġbesides":2866,"Ġmaking":2867,"Ġmechan":2868,"cede":2869,"Ġprimal":2870,"Ġannihil":2871,"Ġlay":2872,"those":2873,"Ġexisted":2874,"Ġregion":2875,"whole":2876,"ĠAN":2877,"case":2878,"Ġpractically":2879,"Ġeveryone":2880,"Ġsubordin":2881,"Ġproduces":2882,"Ġcompelled":2883,"Ġassumed":2884,"Ġconclusions":2885,"Ġmetaphysic":2886,"Ġfinally":2887,"Ġcontingency":2888,"Ġindependently":2889,"Ġinquiry":2890,"ĠAnalytic":2891,"Ġcomparison":2892,"intelligible":2893,"Ġutterly":2894,"etermined":2895,"path":2896,"content":2897,"Äłl":2898,"conce":2899,"ief":2900,"enetr":2901,"UT":2902,"itable":2903,"hensible":2904,"ante":2905,"expl":2906,"Re":2907,"greg":2908,"mort":2909,"arge":2910,"struction":2911,"like":2912,"Ġhon":2913,"Ġattained":2914,"Project":2915,"occ":2916,"Ġ9":2917,"Ġtable":2918,"internal":2919,"Ġtheory":2920,"Ġredu":2921,"Ġdown":2922,"Ġexper":2923,"Ġlabour":2924,"Ġnotions":2925,"usory":2926,"Ġuncondition":2927,"idea":2928,"Ġtransc":2929,"Ġimpl":2930,"Ġheter":2931,"anted":2932,"stratum":2933,"ferences":2934,"Ġduties":2935,"sensibility":2936,"fully":2937,"Ġpoints":2938,"Ġcontradictory":2939,"contrary":2940,"ĊĊĠĠĠĠĠĠĠĠĠĠĠĠĠĠĠĠĠĠĠĠ":2941,"Ġconflict":2942,"Ġarrive":2943,"Ġmembers":2944,"Ġfunctions":2945,"substance":2946,"Ġinfinity":2947,"Ġdonations":2948,"Ġcosmical":2949,"SC":2950,"non":2951,"Ġom":2952,"abstr":2953,"Ġur":2954,"ists":2955,"Ġsequ":2956,"compre":2957,"ckon":2958,"crit":2959,"ret":2960,"erit":2961,"Äłb":2962,"acy":2963,"ounce":2964,"great":2965,"iang":2966,"Ġindis":2967,"ification":2968,"irection":2969,"Ġsecure":2970,"anger":2971,"discover":2972,"far":2973,"matter":2974,"vol":2975,"ww":2976,"ings":2977,"ars":2978,"Ġgiving":2979,"Ġaccess":2980,"ĠWith":2981,"former":2982,"OR":2983,"aight":2984,"oin":2985,"science":2986,"eriori":2987,"Ġsake":2988,"Ġtowards":2989,"Ġfill":2990,"Ġdirection":2991,"omogeneous":2992,"ash":2993,"Ġcanon":2994,"Ġdef":2995,"Ġdependent":2996,"actions":2997,"Ġtherein":2998,"Ġmeet":2999,"piricism":3000,"Ġmorally":3001,"Ġadm":3002,"been":3003,"ĠWhat":3004,"itherto":3005,"ĠHow":3006,"necessarily":3007,"Ġkinds":3008,"ĠLiterary":3009,"Ġpresupposed":3010,"Ġarrangement":3011,"obser":3012,"Ġspecial":3013,"ĠPractical":3014,"ĠIII":3015,"Ġdialectic":3016,"correspond":3017,"Ġoperations":3018,"Ġsufficiently":3019,"light":3020,"soci":3021,"ND":3022,"hig":3023,"ian":3024,"when":3025,"alent":3026,"orrow":3027,"Äła":3028,"xiom":3029,"How":3030,"press":3031,"lev":3032,"Ġprud":3033,"immediate":3034,"elf":3035,"universal":3036,"Su":3037,"first":3038,"isible":3039,"Ġprob":3040,"Ġperceived":3041,"Ġaccident":3042,"Ġmaj":3043,"Ġclass":3044,"Ġcomprehend":3045,"effect":3046,"times":3047,"Ġfan":3048,"Ġnone":3049,"Ġreciproc":3050,"Ġpriv":3051,"Ġexposition":3052,"Ġlos":3053,"urally":3054,"oretic":3055,"usiness":3056,"Ġcomposite":3057,"Ġrise":3058,"external":3059,"Ġevidence":3060,"Ġplain":3061,"Ġpurity":3062,"Ġfear":3063,"Ġproduct":3064,"determining":3065,"Ġstraight":3066,"Ġwhereas":3067,"Ġtotal":3068,"Ġequal":3069,"ĠTherefore":3070,"Ġdeny":3071,"Ġobligation":3072,"ĠeBooks":3073,"limited":3074,"Ġpretensions":3075,"Ġanalogy":3076,"Ġignorance":3077,"Ġspontaneity":3078,"ĠArchive":3079,"Ġpsychology":3080,"ĠPrinciples":3081,"Ġcarry":3082,"subsist":3083,"investig":3084,"eem":3085,"contin":3086,"ixed":3087,"den":3088,"Ġic":3089,"eness":3090,"org":3091,"ibnit":3092,"Äłt":3093,"ibnitz":3094,"point":3095,"since":3096,"Ġsever":3097,"Ġunited":3098,"Ġsophist":3099,"uthoriz":3100,"struct":3101,"AS":3102,"Pr":3103,"What":3104,"side":3105,"vious":3106,"Ġfail":3107,"Ġreceived":3108,"Ġdivers":3109,"asant":3110,"Ġassoci":3111,"Ġlove":3112,"ifice":3113,"Ġreasoning":3114,"Ġdefect":3115,"ĠAccording":3116,"sphere":3117,"Ġsubstratum":3118,"Ġcontaining":3119,"existent":3120,"That":3121,"Ġfeelings":3122,"ĠConceptions":3123,"Ġimperatives":3124,"Ġobserve":3125,"Ġattributes":3126,"Ġsignification":3127,"Ġprevent":3128,"Ġprovided":3129,"Ġopen":3130,"Ġanalog":3131,"Ġnoumenon":3132,"pensable":3133,"Ġultimate":3134,"velop":3135,"reng":3136,"mortality":3137,"iangle":3138,"cceed":3139,"hand":3140,"lat":3141,"ired":3142,"itude":3143,"ĠOR":3144,"eibnitz":3145,"tion":3146,"ites":3147,"ator":3148,"attain":3149,"claim":3150,"Ġcontem":3151,"pter":3152,"ization":3153,"missible":3154,"Ġspecies":3155,"power":3156,"Ġsk":3157,"Ġpublic":3158,"amed":3159,"Ġused":3160,"Ġpresence":3161,"Ġassign":3162,"Ġabsurd":3163,"Wh":3164,"ild":3165,"ially":3166,"Ġtitle":3167,"Ġshe":3168,"Ġback":3169,"Ġfour":3170,"sthetic":3171,"uty":3172,"Äłde":3173,"ĠIm":3174,"ula":3175,"Ġdet":3176,"Ġate":3177,"ĠFrom":3178,"ĠPro":3179,"Ġplan":3180,"ĠGeneral":3181,"withstanding":3182,"manif":3183,"angu":3184,"ĠUnderstanding":3185,"Ġstandard":3186,"certainty":3187,"Ġassertion":3188,"Ġlonger":3189,"Ġdemonstrate":3190,"Ġcease":3191,"Ġlegislative":3192,"Ġundetermined":3193,"propositions":3194,"Ġthoroughly":3195,"Ġparagraph":3196,"Ġnoumena":3197,"Ġpreviously":3198,"ĠSpace":3199,"Ġoppon":3200,"Ġcircumstances":3201,"Ġschools":3202,"avoidable":3203,"Ġseveral":3204,"OU":3205,"Ġang":3206,"throp":3207,"opular":3208,"particular":3209,"valid":3210,"air":3211,"uous":3212,"Ġpract":3213,"Äłh":3214,"izes":3215,"Ġworthy":3216,"iberty":3217,"joy":3218,"Ġindu":3219,"through":3220,"ustr":3221,"Ġsight":3222,"Ġrec":3223,"Ġhum":3224,"Ġprocess":3225,"truth":3226,"Ġjustice":3227,")âĢĶ":3228,"iting":3229,"Ġwrit":3230,"Ġpast":3231,"Ġinformation":3232,"Ġmention":3233,"Ġrece":3234,"Ġconfin":3235,"Ġhitherto":3236,"Ġasc":3237,"irmed":3238,"Ġunknown":3239,"Ġvent":3240,"ademark":3241,"ounded":3242,"Ġnaturally":3243,"Ġquality":3244,"Ġrelatively":3245,"ĠAt":3246,"Ġchain":3247,"Ġpartly":3248,"ignity":3249,"proceed":3250,"Ġenlar":3251,"hapter":3252,"Ġminds":3253,"Ġproceeds":3254,"Ġdecide":3255,"Ġdefined":3256,"Ġmetaphysical":3257,"Ġprovide":3258,"Ġdemands":3259,"Ġintuited":3260,"ĠUnited":3261,"Ġdiscuss":3262,"Ġobservation":3263,"Ġfurnish":3264,"ED":3265,"mot":3266,"ts":3267,"natural":3268,"***":3269,"turn":3270,"Ġturn":3271,"inf":3272,"rest":3273,"issim":3274,"ater":3275,"Ġsa":3276,"post":3277,"Ġ=":3278,"theoretical":3279,"Ġdiscern":3280,"well":3281,"adequate":3282,"ug":3283,"Ġbene":3284,"Ġheld":3285,"Ġcontrib":3286,"Ġsatisfied":3287,"cribes":3288,"Ġconcerned":3289,"ĊĠĠĠĠĠĠĠĠĠĠĠĠĠĠĠĠ":3290,"Ġsent":3291,"als":3292,"Ġinsepar":3293,"Ġborrow":3294,"Ġbusiness":3295,"Ġfirm":3296,"Ġelev":3297,"Ġweight":3298,"Ġsucceed":3299,"Ġcomposition":3300,"Ġpermanence":3301,"Ġstud":3302,"aches":3303,"ĠSo":3304,"ĠSy":3305,"ĠOur":3306,"Ġobst":3307,"Ġobsc":3308,"âĢĿ;":3309,"Ġadmitting":3310,"Ġquantities":3311,"accord":3312,"Ġafford":3313,"relate":3314,"Ġwants":3315,"Ġdemonstration":3316,"Ġholds":3317,"Ġproblems":3318,"Ġdenied":3319,"Ġvariety":3320,"everything":3321,"Ġsprings":3322,"example":3323,"Ġignorant":3324,"Ġauthority":3325,"Ġdiscussion":3326,"Ġantecedent":3327,"Ġforeign":3328,"Ġexactly":3329,"quantity":3330,"Ġscepticism":3331,"Ġdomain":3332,"Ġmajor":3333,"nex":3334,"play":3335,"maxim":3336,"TIC":3337,"look":3338,"Ġmist":3339,"Äłcon":3340,"seless":3341,"ialectic":3342,"ENDENTAL":3343,"vere":3344,"super":3345,"neg":3346,"ert":3347,"before":3348,"conting":3349,"distinguish":3350,"SCENDENTAL":3351,"gl":3352,"gress":3353,"say":3354,"Ġpun":3355,"uring":3356,"ÄłA":3357,"Ġcap":3358,"Ġunderstood":3359,"indic":3360,"ĠPh":3361,"Ġproduction":3362,"Ġexpected":3363,"Ġadded":3364,"ÃĥÄ¦ÃħÄ¤ÃĥÄ¦ÃħÄ¤":3365,"By":3366,"aff":3367,"ople":3368,"Ġaxiom":3369,"rees":3370,"itled":3371,"least":3372,"Ġdest":3373,"Ġdanger":3374,"entific":3375,"Ġlost":3376,"Ġlower":3377,"ceptivity":3378,"Ġgl":3379,"Äłex":3380,"ified":3381,"oliness":3382,"Ġpossibly":3383,"Ġimmortality":3384,"Ġperform":3385,"Ġapparent":3386,"aged":3387,"Ġscientific":3388,"Ġpreser":3389,"Ġapplies":3390,"ĠDe":3391,"Ġimpul":3392,"Ġconstitutive":3393,"Ġadmits":3394,"Ġpresupposition":3395,"Ġillusory":3396,"Ġindif":3397,"Ġafterwards":3398,"Ġantit":3399,"Ġ200":3400,"Ġinstance":3401,"connected":3402,"Ġspeaking":3403,"Ġinquiries":3404,"Ġabsence":3405,"attempt":3406,"Ġearth":3407,"RANSCENDENTAL":3408,"Ġdata":3409,"Ġefforts":3410,"issimum":3411,"Con":3412,"draw":3413,"ÄłP":3414,"Äło":3415,"cies":3416,"On":3417,"psych":3418,"stant":3419,"igion":3420,"mind":3421,"oubted":3422,"Ġtry":3423,"Ġseen":3424,"Ġeng":3425,"ggest":3426,"Ġintention":3427,"Ġqual":3428,"physical":3429,"appre":3430,"after":3431,"ico":3432,"Ġmark":3433,"urity":3434,"actory":3435,"Ġnecessit":3436,"Ġimage":3437,"arer":3438,"Ġapplicable":3439,"ST":3440,"cul":3441,"Ġpay":3442,"Ġinference":3443,"edience":3444,"Ġeth":3445,"Ġreckon":3446,"Ġdignity":3447,"utation":3448,"Äłe":3449,"Ġproves":3450,"Ġtriangle":3451,"Ġstreng":3452,"oney":3453,"ĠNay":3454,"Ġsubsum":3455,"ĠCosmological":3456,"icians":3457,"Ġremo":3458,"Ġexamine":3459,"Ġoriginate":3460,"Ġdivided":3461,"Ġdeduce":3462,"Ġconclude":3463,"Ġsecondly":3464,"Ġindirect":3465,"beings":3466,"Ġdemonstrated":3467,"Ġequally":3468,"Ġrenders":3469,"Ġsmallest":3470,"completely":3471,"Ġendeavours":3472,"Ġconviction":3473,"Ġexhibit":3474,"Ġraised":3475,"mathematics":3476,"worthy":3477,"Ġlearned":3478,"Ġdiversity":3479,"JEC":3480,"Ġfit":3481,"consequ":3482,"umer":3483,"ITY":3484,"irit":3485,"expect":3486,"express":3487,"Ġity":3488,"Ġanci":3489,"Ġ7":3490,"Ġauthoriz":3491,"Ġcr":3492,"pri":3493,"again":3494,"Ġestim":3495,"legisl":3496,"Ġfigure":3497,".)":3498,"As":3499,"_.":3500,"lies":3501,"Ġol":3502,"ains":3503,"Ġaggreg":3504,"Ġesca":3505,"subjective":3506,"independent":3507,"Ġproportion":3508,"manifold":3509,",\"":3510,"Transcendental":3511,"ges":3512,"gutenberg":3513,"overy":3514,"take":3515,"inasmuch":3516,"Ġbest":3517,"Ġmerit":3518,"Ġmoney":3519,"another":3520,"Ġreceive":3521,"Ġum":3522,"imag":3523,"Ġforces":3524,"thus":3525,"Ġdevelop":3526,"Ġspirit":3527,"Ġempiricism":3528,"orious":3529,"ĠPU":3530,"ĠPRO":3531,"Ġrepresents":3532,"ĠNo":3533,"Ġsubl":3534,"imitive":3535,"Ġdifferences":3536,"ĠHere":3537,"Ġproceeding":3538,"Ġanalytic":3539,"Ġreflect":3540,"regress":3541,"Ġbegins":3542,"Ġexpressions":3543,"Ġhypotheses":3544,"cisely":3545,"Ġdegrees":3546,"Ġinvestigations":3547,"going":3548,"Ġposteriori":3549,"Ġerrors":3550,"Ġinvolves":3551,"Ġinferred":3552,"nitude":3553,"Ġprofess":3554,"Ġpostulate":3555,"himself":3556,"ĠStates":3557,"Ġprivate":3558,"Ġloss":3559,"subsistent":3560,"anguage":3561,"cern":3562,"jun":3563,"Ġont":3564,"you":3565,"Ġver":3566,"ERG":3567,"oined":3568,"vice":3569,"step":3570,"Äłr":3571,"Äłv":3572,"Ġformed":3573,"proof":3574,"Ġguard":3575,"feel":3576,"ÄĬÄĬ":3577,"Ġaccomp":3578,"BERG":3579,"oper":3580,"por":3581,"Ġ6":3582,"assert":3583,"Ġusu":3584,"Ġones":3585,"Äłpr":3586,"ify":3587,"cond":3588,"while":3589,"Ġconsistent":3590,"Ġcontinue":3591,"Ġallowed":3592,"ares":3593,"ik":3594,"Ġpopular":3595,"Ġren":3596,"Ġrep":3597,"argum":3598,"ased":3599,"Ġhabit":3600,"notion":3601,"Ġobserved":3602,"Ġinvolved":3603,"Ġleads":3604,"employment":3605,"Hence":3606,"two":3607,"Ġtheoretic":3608,"ref":3609,"Ġwishes":3610,"Ġsign":3611,"Ġincre":3612,"ouble":3613,"Ġreturn":3614,"entially":3615,"Ġholiness":3616,"Ġascribe":3617,"Ġanimal":3618,"Ġexc":3619,"Ġnotwithstanding":3620,"Äłdis":3621,"ĠTime":3622,"Ġobjections":3623,"Ġcomes":3624,"ideas":3625,"Ġanyone":3626,"Ġforming":3627,"supp":3628,"Ġshort":3629,"Ġsubjects":3630,"Ġdisappear":3631,"ternally":3632,"Ġserves":3633,"Ġplaces":3634,"Ġfollowed":3635,"Ġremarks":3636,"ĠHume":3637,"Ġactivity":3638,"Ġfew":3639,"Ġextensive":3640,"Ġthinks":3641,"Ġrealissimum":3642,"Ġenter":3643,"determine":3644,"Ġincluded":3645,"Ġshows":3646,"Ġrequirement":3647,"Ġappearances":3648,"Ġproofs":3649,"ficial":3650,"Ġexpresses":3651,"Ġsatisfy":3652,"Ġnegation":3653,"Ġcoexistence":3654,"Ġinquire":3655,"Ġprecedes":3656,"Ġpromise":3657,"ĠYOU":3658,"ĠIdeas":3659,"Ġcheck":3660,"cogitate":3661,"ĠÃ¦":3662,"ĊĠĠĠĠĠĠĠĠĠ":3663,"Ġpeople":3664,"Reason":3665,"Ġindispensable":3666,"Ġsearch":3667,"fortun":3668,"pret":3669,"oblig":3670,"bid":3671,"ained":3672,"andon":3673,"ember":3674,"ician":3675,"hypothe":3676,"tt":3677,"Ġways":3678,"Ġmo":3679,"plic":3680,"ultiv":3681,"conscious":3682,"Ġstru":3683,"human":3684,"itect":3685,"itimate":3686,"Ġexception":3687,".\"":3688,"SE":3689,"Ġmin":3690,"sely":3691,"Ġoccur":3692,"Ġavail":3693,"Ġfulf":3694,"Ġblind":3695,"From":3696,"til":3697,"Ġion":3698,"ati":3699,"Ġcal":3700,"Ġsays":3701,"Ġbad":3702,"Ġbold":3703,"Ġmult":3704,"lease":3705,"Ġbeh":3706,"Ġhomogeneous":3707,"Ġpros":3708,"Ġexec":3709,"Ġextr":3710,"Ġliberty":3711,"istance":3712,"âĢĻ":3713,"Ġdev":3714,"olution":3715,"Ġviz":3716,"Ġimmanent":3717,"Ġpersu":3718,"Ġpermission":3719,"evertheless":3720,"Ġdiscipline":3721,"Ġdisplay":3722,"Ġprecede":3723,"finitum":3724,"Ġendless":3725,"Ġcausal":3726,"ĠGUT":3727,"ĠCh":3728,"Ġobedience":3729,"ishment":3730,"Ġrespects":3731,"Ġdiscovery":3732,"Ġfee":3733,"Ġenjoy":3734,"ĠEm":3735,"Ġentitled":3736,"Ġattend":3737,"ĠDo":3738,"ĠDiv":3739,"determines":3740,"Ġstrong":3741,"Ġconsiderations":3742,"Ġrefund":3743,"Ġcommonly":3744,"ĠLeibnitz":3745,"Ġcomply":3746,"Ġassumption":3747,"ENBERG":3748,"Ġpersons":3749,"Ġguide":3750,"Ġschemat":3751,"Ġcopies":3752,"morality":3753,"Ġcoexistent":3754,"Ġpromot":3755,"regards":3756,"diffic":3757,"Ġchoose":3758,"Ġcontinuous":3759,"Ġinfinitum":3760,"inclination":3761,"Ġconstructed":3762,"Ġintroduce":3763,"consistent":3764,"Ġprecepts":3765,"Ġseparate":3766,"Ġcreature":3767,"Ġstatements":3768,"Ġgenu":3769,"Ġgeometry":3770,"conceit":3771,"Ġunconditional":3772,"Ġsophistical":3773,"Ġassociated":3774,"Ġopponent":3775,"JECT":3776,"ĠGUTENBERG":3777,"che":3778,"inct":3779,"exer":3780,"PL":3781,"dog":3782,"ÄłS":3783,"ustom":3784,"unte":3785,"Ġmediate":3786,"iol":3787,"Ġid":3788,"ank":3789,"Äłw":3790,"conci":3791,"concern":3792,"defin":3793,"Ġplay":3794,"proble":3795,"EM":3796,"found":3797,"line":3798,"Ġ0":3799,"depend":3800,"Ġaccur":3801,"observ":3802,"Ġangles":3803,"IR":3804,"signif":3805,"inqu":3806,"infinite":3807,"atio":3808,"ors":3809,"Ġholy":3810,"Ġprim":3811,"pleasure":3812,"order":3813,"Ġlea":3814,"appro":3815,"Ġderiv":3816,"Ġspecif":3817,"influence":3818,"contingent":3819,"IL":3820,"foundation":3821,"pass":3822,"were":3823,"Ġtw":3824,"hesis":3825,"inter":3826,"inary":3827,"Ġwond":3828,"Ġcost":3829,"Ġpaid":3830,"Ġinferences":3831,"Ġbu":3832,"leological":3833,"Ġreceptivity":3834,"Ġconstant":3835,"Ġhist":3836,"imer":3837,"owed":3838,"Ġsuggest":3839,"Ġreasons":3840,"Ġunavoidable":3841,"trans":3842,"Ġimpossibility":3843,"Ġheav":3844,"Ġreligion":3845,"nthetical":3846,"Ġknows":3847,"straint":3848,"Ġparty":3849,"ĠSolution":3850,"solution":3851,"Ġgoes":3852,"aching":3853,"ĠEpic":3854,"exists":3855,"anged":3856,"Ġconstituted":3857,"ĠMor":3858,"Ġcommonest":3859,"ĠLicense":3860,"Ġassuming":3861,"Ġattainment":3862,"Ġdefine":3863,"Ġimagine":3864,"cognitions":3865,"Ġcorresponds":3866,"Ġutility":3867,"Ġidealism":3868,"Ġremarkable":3869,"regarded":3870,"Ġfalls":3871,"intel":3872,"judgements":3873,"Ġmedium":3874,"ART":3875,"ruit":3876,"nevertheless":3877,"application":3878,"follows":3879,"Ġadvanced":3880,"metaphysics":3881,"ursive":3882,"totality":3883,"Ġtax":3884,"Ġmagnitude":3885,"Ġmechanism":3886,"Ġhonest":3887,"Ġexperiment":3888,"Ġimplies":3889,"corresponding":3890,"investigation":3891,"Ġsafe":3892,"Ġstudy":3893,"accordance":3894,"Ġantithesis":3895,"plicity":3896,"OG":3897,"view":3898,"oured":3899,"Ġord":3900,"ÄłC":3901,"ili":3902,"addition":3903,"Ġusing":3904,"scept":3905,"alogism":3906,"ndered":3907,"second":3908,"deg":3909,"olog":3910,"establ":3911,"Ġappe":3912,"ĠNO":3913,"ÄłÄłÄłÄłÄłÄłÄłÄłÄłÄłÄłÄłÄłÄłÄłÄł":3914,"intellectual":3915,"PR":3916,"equ":3917,"find":3918,"pot":3919,"Ġforward":3920,"conv":3921,"concept":3922,"Ġgrad":3923,"Ġacts":3924,"Ġaware":3925,"brated":3926,"logical":3927,"nor":3928,"Ġtal":3929,"inst":3930,"Ġfortun":3931,"trodu":3932,"Ġdoctr":3933,"Ġcharge":3934,"preced":3935,"Ġsubsist":3936,"Ġhappy":3937,"ĠEvery":3938,"Ġesteem":3939,"ables":3940,"Ġillustr":3941,"Ġphysics":3942,"Ġconvin":3943,"Ġtransgress":3944,"Ex":3945,"inions":3946,"lebrated":3947,"Ġaside":3948,"Ġlist":3949,"Ġlanguage":3950,"ĠĠĠĠĠ":3951,"Ġweak":3952,"Ġproposed":3953,"Ġreasonable":3954,"ĠTO":3955,"Ġuntil":3956,"Ġtrademark":3957,"Ġimit":3958,"Ġhead":3959,"Ġability":3960,"Ġpermit":3961,"Ġformula":3962,"presented":3963,"Ġadapt":3964,"etent":3965,"Ġarising":3966,"Ġsometimes":3967,"ĠNat":3968,"ĠNot":3969,"Ġfrequ":3970,"beyond":3971,"These":3972,"Ġlimitations":3973,"Ġsaying":3974,"ĠEven":3975,"Ġattached":3976,"ĠDeduction":3977,"Ġsecret":3978,"Ġconcluded":3979,"Ġconfess":3980,"Ġaffirmed":3981,"Ġdesired":3982,"Ġfinal":3983,"Ġessentially":3984,"Ġdifficult":3985,"Ġmaterials":3986,"Ġpromote":3987,"Ġcircle":3988,"considered":3989,"Ġdistribution":3990,"substances":3991,"Ġcombination":3992,"Ġoccupied":3993,"systematic":3994,"division":3995,"satisfaction":3996,"Ġsyllogisms":3997,"Ġsubordinate":3998,"highest":3999,"immediately":4000,"Ġrecourse":4001,"Ġventure":4002,"Ġinseparably":4003,"Ġaxioms":4004,"Ġengaged":4005,"junctive":4006,"Ġontological":4007,"ĠÃ¦sthetic":4008,"Ġleaves":4009,"Ġled":4010,"oyal":4011,"main":4012,"rupt":4013,"IM":4014,"dedu":4015,"fact":4016,"show":4017,"tal":4018,"ivalent":4019,"vey":4020,"ilst":4021,"common":4022,"ream":4023,"ened":4024,"attrib":4025,"ceasing":4026,"ĠIV":4027,"positive":4028,"mention":4029,"Ġ15":4030,"distinction":4031,"philosopher":4032,"require":4033,"orizon":4034,"unteers":4035,"fall":4036,"ling":4037,"Ġprot":4038,"imper":4039,"Ġlines":4040,"ĠIN":4041,"Ġvan":4042,"Ġprep":4043,"ĠWh":4044,"Ġsubstant":4045,"Ġconfirm":4046,"Ġanticip":4047,"Ġ20":4048,"Ġprudence":4049,"Ġcontempl":4050,"Ġskill":4051,"Of":4052,"dec":4053,"duty":4054,"fundamental":4055,"give":4056,"rong":4057,"rule":4058,"yet":4059,"Ġical":4060,"inity":4061,"Ġobe":4062,"itas":4063,"Ġwide":4064,"Ġsac":4065,"Ġinsufficient":4066,"ingly":4067,"Ġhind":4068,"Ġprimitive":4069,"Ġascribed":4070,"Ġsuitable":4071,"Ġget":4072,"urious":4073,"ulate":4074,"Ġated":4075,"Ġunlimited":4076,"Ġcompl":4077,"Ġmeasure":4078,"ĊĊĊĊĠĠĠĠĠĠĠĠĠĠĠĠĠĠĠĠĠĠĠĠĠĠĠĠĠĠĠĠĠĠĠĠĠĠĠĠĠĠĠĠĠ":4079,"Ġimposes":4080,"Ġheart":4081,"Ġperi":4082,"acity":4083,"Ġaddu":4084,"Ġchapt":4085,"ĠSEC":4086,"ressions":4087,"ĠInt":4088,"Ġcomplex":4089,"ĠIts":4090,"ĠWhether":4091,"Ġgoal":4092,"Ġgover":4093,"serted":4094,"Ġemploying":4095,"ĠHis":4096,"Ġprescribes":4097,"ĠDI":4098,"ĠDis":4099,"determinations":4100,"Ġincluding":4101,"Ġcharacteristic":4102,"Ġdeclar":4103,"Ġdiscovering":4104,"OOF":4105,"Ġmoder":4106,"Ġwanting":4107,"parts":4108,"Ġinvestigate":4109,"Ġexplained":4110,"Ġgenera":4111,"Ġfalla":4112,"Ġpathological":4113,"Ġaffirmative":4114,"Ġadditional":4115,"Ġdefinitions":4116,"Ġjustify":4117,"indeed":4118,"Ġobtained":4119,"examination":4120,"requires":4121,"Ġschol":4122,"Ġprofound":4123,"Ġantecedes":4124,"applied":4125,"properly":4126,"Ġpsychological":4127,"Ġreferred":4128,"Ġdeclared":4129,"Ġroot":4130,"Ġorganized":4131,"ĠKant":4132,"Ġcarefully":4133,"Ġcreation":4134,"total":4135,"comprehensible":4136,"Ġreciprocal":4137,"ASON":4138,"Ġdefective":4139,"lato":4140,"Ġpractice":4141,"apprehension":4142,"ĠPROJECT":4143,"Ġsigns":4144,"Ġgenuine":4145,"PROOF":4146,"direct":4147,"nce":4148,"restrict":4149,"itious":4150,"begin":4151,"import":4152,"doubt":4153,"sing":4154,"ery":4155,"suffici":4156,"ACE":4157,"Ġil":4158,"ÄłD":4159,"vers":4160,"Ġations":4161,"transcendent":4162,"ixt":4163,"anteced":4164,"PRE":4165,"RI":4166,"iences":4167,"uel":4168,"enomen":4169,"anthrop":4170,"entire":4171,"theology":4172,"chitect":4173,"among":4174,"Ġsym":4175,"except":4176,"who":4177,"unal":4178,"Ġclose":4179,"work":4180,"analytical":4181,"advantage":4182,"Ġomni":4183,"//":4184,"According":4185,"big":4186,"element":4187,"labour":4188,"Ġair":4189,"reme":4190,"ick":4191,"orical":4192,"Ġfruit":4193,"Ġdur":4194,"person":4195,"posing":4196,"ants":4197,"Ġdesc":4198,"Ġcommun":4199,"ĠREM":4200,"abstract":4201,"://":4202,"And":4203,"ATION":4204,"CT":4205,"ging":4206,"mode":4207,"ox":4208,"opposition":4209,"Ġ8":4210,"Ġve":4211,"Ġtre":4212,"Ġtill":4213,"really":4214,"Ġwar":4215,"Ġsound":4216,"alog":4217,"Ġinj":4218,"Ġinstruction":4219,"Ġefficient":4220,"lead":4221,"Ġreject":4222,"Ġwhilst":4223,"aries":4224,"Ġhyp":4225,"iments":4226,"Ġforbid":4227,"Ġsuff":4228,"Äłg":4229,"Ġattr":4230,"Ġspaces":4231,"ĊĊĠĠĠĠĠĠĠĠ":4232,"ĊĊĊĊĠĠĠĠĠĠĠĠĠĠĠĠĠĠĠĠ":4233,"Ġtrouble":4234,"ĠBesides":4235,"Ġabandon":4236,"Ġpermitted":4237,"antages":4238,"Ġstart":4239,"Ġrelated":4240,"Ġevid":4241,"acing":4242,"ĠPhenomen":4243,"soever":4244,"Ġprejud":4245,"Ġthence":4246,"Ġwhence":4247,"Ġgranted":4248,"ĠCON":4249,"Ġobvious":4250,"Ġconnects":4251,"Ġcommence":4252,"Ġremove":4253,"otherwise":4254,"Ġindependence":4255,"ĠEgo":4256,"existing":4257,"ĠDialectic":4258,"Ġinclude":4259,"cognize":4260,"Ġsensations":4261,"Ġrequirements":4262,"Ġdivine":4263,"Ġcontradictions":4264,"Ġsupply":4265,"Ġexpressed":4266,"intuitions":4267,"made":4268,"Ġconfidence":4269,"Ġconfused":4270,"ĠOnly":4271,"Ġacute":4272,"Ġattributed":4273,"Ġherself":4274,"Ġdifficulties":4275,"Ġdoubts":4276,"Ġcelebrated":4277,"Ġaffirmation":4278,"objectively":4279,"Ġsmaller":4280,"Ġteleological":4281,"Ġoperation":4282,"ARK":4283,"Ġcombined":4284,"ĠIdea":4285,"Ġoccupies":4286,"Ġraise":4287,"following":4288,"ĠJudgement":4289,"perfectly":4290,"ĠREASON":4291,"Ġdeserves":4292,"Everything":4293,"species":4294,"Ġgenus":4295,"changeable":4296,"Ġaccompl":4297,"conformity":4298,"Ġconversely":4299,"Ġsubordinated":4300,"Ġreduce":4301,"Ġheteronomy":4302,"abstraction":4303,"Ġsequence":4304,"ĠWithout":4305,"Ġadmir":4306,"ĠSynthetical":4307,"Ġdestination":4308,"Ġimpulses":4309,"Ġaggregate":4310,"Ġescape":4311,"Ġoneself":4312,"Ġminor":4313,"Ġschemata":4314,"Ġperiod":4315,"Ġtrib":4316,"correct":4317,"AM":4318,"Ġive":4319,"ibly":4320,"Äłen":4321,"assum":4322,"similar":4323,"ugment":4324,"An":4325,"With":4326,"Ġage":4327,"itions":4328,"ÄłM":4329,"Äłn":4330,"pleasant":4331,"Ġspect":4332,"ialectical":4333,"occup":4334,"maintain":4335,"aps":4336,"aenomen":4337,"bod":4338,"Ġies":4339,"itio":4340,"atus":4341,"Ġcur":4342,"statement":4343,"econd":4344,"abs":4345,"acher":4346,"Ġadmissible":4347,"compar":4348,"ger":4349,"iance":4350,"Ġtyp":4351,"Ġcultiv":4352,"Ġsection":4353,"omp":4354,"urality":4355,"concl":4356,"Ġalter":4357,"Ġrid":4358,"supposition":4359,"Ġmortal":4360,"comb":4361,"Ġ10":4362,"relations":4363,"Ġsatisfactory":4364,"Ġsett":4365,"Ġlegitimate":4366,"ÃĥÄ¥":4367,"Ġlying":4368,"Ġcounter":4369,"VE":4370,"both":4371,"each":4372,"face":4373,"make":4374,"Â¦":4375,"ĊĠĠĠĠĠĠĠĠĠĠĠĠĠĠĠĠĠĠĠĠĠĠĠĠ":4376,"Ġtast":4377,"isable":4378,"isibility":4379,"Ġwrong":4380,"Ġsides":4381,"Ġslight":4382,"orm":4383,"Ġfive":4384,"sec":4385,"ouse":4386,"Ġisol":4387,"Ġrendered":4388,"Ġdict":4389,"state":4390,"utions":4391,"ected":4392,"Ġhy":4393,"Ġasserted":4394,"theological":4395,"Ġexposed":4396,"Ġlose":4397,"Ġloc":4398,"Ġsusp":4399,"ÄłE":4400,"Äłan":4401,"quite":4402,"Ġpropose":4403,"Ġobjection":4404,"Ġdeep":4405,"Ġalong":4406,"above":4407,"Ġunceasing":4408,"umber":4409,"true":4410,"Ġrank":4411,"Ġmeant":4412,"Ġimposed":4413,"Ġseat":4414,"Ġstated":4415,"Ġrelating":4416,"ĠPlato":4417,"Ġdisjunctive":4418,"Ġpremis":4419,"Ġprecisely":4420,"Ġchimer":4421,"Ġparties":4422,"ĠSince":4423,"ĠNe":4424,"ĠNevertheless":4425,"ĠObject":4426,"Ġservice":4427,"Ġpresenting":4428,"astic":4429,"Ġgoodness":4430,"Ġoutside":4431,"Ġpossessed":4432,"ounces":4433,"Ġimpart":4434,"ĠMat":4435,"ĠMetaphys":4436,"Ġcompare":4437,"Ġadvantages":4438,"Ġillusions":4439,"Ġrightly":4440,"Ġedifice":4441,"Ġextending":4442,"Ġconcerning":4443,"certainly":4444,"Ġmodality":4445,"Ġutmost":4446,"Ġequivalent":4447,"Ġsignifies":4448,"completeness":4449,"simple":4450,"Ġharmonize":4451,"Ġundoubted":4452,"Ġconjoined":4453,"Ġtreats":4454,"Ġdistribute":4455,"Ġdistributing":4456,"Ġcriteria":4457,"command":4458,"Ġstrictly":4459,"Ġexhibits":4460,"Ġexcluded":4461,"Ġblame":4462,"Ġpursue":4463,"Ġforegoing":4464,"Ġdelusion":4465,"Ġapproxim":4466,"summum":4467,"ĠSpeculative":4468,"consideration":4469,"ĠPrinciple":4470,"contains":4471,"contained":4472,"grounds":4473,"Ġadopted":4474,"thinking":4475,"predicates":4476,"belonging":4477,"succession":4478,"sensation":4479,"Ġannihilated":4480,"explanation":4481,"Ġsequel":4482,"ĠAccordingly":4483,"Ġconfine":4484,"Ġborrowed":4485,"Ġobstac":4486,"Ġpreserve":4487,"Ġstrength":4488,"hypothesis":4489,"ttp":4490,"Ġbehind":4491,"exercise":4492,"degree":4493,"Ġgovern":4494,"ixture":4495,"Ġduration":4496,"QU":4497,"ier":4498,"oot":4499,"¢Ä":4500,"Ġmon":4501,"set":4502,"distrib":4503,"affirm":4504,"Ġast":4505,"orph":4506,"Ġness":4507,"prop":4508,"sole":4509,"intu":4510,"ÃĥÄ¥ÃĦ":4511,"col":4512,"clear":4513,"mod":4514,"sour":4515,"iform":4516,"answ":4517,"progress":4518,"ĠON":4519,"Ġpleasant":4520,"need":4521,"ARRAN":4522,"author":4523,"co":4524,"cks":4525,"fit":4526,"gain":4527,"iable":4528,"prom":4529,"ri":4530,"Ġog":4531,"alt":4532,"see":4533,"ott":4534,"pright":4535,"uncondition":4536,"avoured":4537,"aneous":4538,"ogeneity":4539,"ÃĦÅĤÃĦÅĤÃĦÅĤÃĦÅĤÃĦÅĤÃĦÅĤÃĦÅĤÃĦÅĤ":4540,"inquir":4541,"Here":4542,"deduction":4543,"ee":4544,"Ġtell":4545,"Ġtaking":4546,"icion":4547,"Ġbre":4548,"utable":4549,"Ġlink":4550,"Äłst":4551,"Äład":4552,"construction":4553,"ilis":4554,"Ġunion":4555,"clos":4556,"Ġarchitect":4557,"ope":4558,"method":4559,"Ġcogitating":4560,"Ġattempted":4561,"Ġapprehend":4562,"ashion":4563,"expected":4564,"Ġfulfil":4565,"Chapter":4566,"God":4567,"Let":4568,"Qu":4569,"SI":4570,"ched":4571,"dialectical":4572,"might":4573,"nay":4574,"Ġtend":4575,"Ġthesis":4576,"reference":4577,"itate":4578,"Ġcle":4579,"Ġpenetr":4580,"Ġinward":4581,"Ġfict":4582,"Ġresol":4583,"Ġrecomm":4584,"Ġreplace":4585,"Ġconstraint":4586,"Ġdr":4587,"Ġdim":4588,"Ġdream":4589,"Ġbear":4590,"arbitr":4591,"Ġhid":4592,"Ġhard":4593,"Ġlaid":4594,"Äłpre":4595,"result":4596,"ĠTRANSCENDENTAL":4597,"conceived":4598,"Ġdepr":4599,"Ġintended":4600,"usive":4601,"illusion":4602,"Ġunworthy":4603,"Ġthereto":4604,"ofold":4605,"Ġundert":4606,"ĊĊĊĊĠĠĠĠĠĠĠĠĠĠĠĠĠĠĠĠĠĠĠĠ":4607,"Ġwills":4608,"Ġanywhere":4609,"Ġformat":4610,"Ġstop":4611,"ĠAuthor":4612,"unless":4613,"Ġsubjected":4614,"ĠPer":4615,"Ġdisclaim":4616,"Ġprefer":4617,"ternity":4618,"ĠSto":4619,"Ġwhatsoever":4620,"Ġnearer":4621,"Ġcompletion":4622,"Ġgrant":4623,"ĠCategor":4624,"ĠChapter":4625,"serve":4626,"Ġthoughts":4627,"Ġconsiders":4628,"Ġenables":4629,"ĠEBOOK":4630,"Ġpresum":4631,"Ġambig":4632,"manner":4633,"manuel":4634,"Ġoriginated":4635,"ĠMy":4636,"evident":4637,"ĠLogic":4638,"Ġcompared":4639,"Ġattaining":4640,"Ġbeforehand":4641,"empirically":4642,"ĠConception":4643,"Ġsets":4644,"Ġdistinguishing":4645,"Ġpersonal":4646,"Ġnumer":4647,"aneously":4648,"ailed":4649,"anything":4650,"Ġopinions":4651,"Ġexpectation":4652,"extension":4653,"Ġallowable":4654,"Ġpromises":4655,"Ġdependence":4656,"regarding":4657,"difference":4658,"Ġmaintained":4659,"Ġteach":4660,"Ġteaches":4661,"Ġbringing":4662,"Ġcorrectness":4663,"limits":4664,"Ġasked":4665,"Ġseeking":4666,"Ġrecognize":4667,"Ġrecognized":4668,"Ġspontaneous":4669,"ĠIdeal":4670,"including":4671,"Ġroom":4672,"ĠJust":4673,"distinguished":4674,"mathematical":4675,"insic":4676,"presupposes":4677,"predicate":4678,"Ġannihilate":4679,"Ġhonour":4680,"Ġtranscend":4681,"Ġheterogeneous":4682,"Ġprobably":4683,"Ġanalogies":4684,"ĠImmanuel":4685,"validity":4686,"Ġmentioned":4687,"Ġreceiving":4688,"drawn":4689,"Ġethics":4690,"Ġremoved":4691,"Ġindirectly":4692,"against":4693,"ĠPURE":4694,"Ġcalcul":4695,"depends":4696,"Ġdoctrines":4697,"Ġadapted":4698,"Ġchapter":4699,"ĠJudgements":4700,"Ġtaste":4701,"Ġhyper":4702,"Ġsuspicion":4703,"gener":4704,"inc":4705,"enlar":4706,"ivable":4707,"indis":4708,"continu":4709,"AN":4710,"RIN":4711,"rist":4712,"Ġence":4713,"Ġions":4714,"err":4715,"anticip":4716,"obtain":4717,"grad":4718,"ock":4719,"OM":4720,"af":4721,"ius":4722,"Â¤":4723,"reciproc":4724,"erable":4725,"Ġist":4726,"entia":4727,"Äłsu":4728,"els":4729,"PH":4730,"mo":4731,"render":4732,"imity":4733,"Äłim":4734,"Ġproving":4735,"orily":4736,"Ġjoin":4737,"Ġactive":4738,"Ġready":4739,"Ġcomprehensible":4740,"Ġaccompan":4741,"UC":4742,"iating":4743,"long":4744,"alth":4745,"Ġann":4746,"iring":4747,"ulae":4748,"Ġpropri":4749,"ilities":4750,"Ġembr":4751,"else":4752,"undred":4753,"Ġerrone":4754,"metaphysic":4755,"negative":4756,"Ġfortune":4757,"imperative":4758,"78":4759,"FACE":4760,"cop":4761,"coun":4762,"cosmological":4763,"electronic":4764,"fers":4765,"iology":4766,"lied":4767,"member":4768,"number":4769,"opposite":4770,"was":4771,"Ġtalent":4772,"Ġaugment":4773,"Ġtheological":4774,"isions":4775,"aticism":4776,"Ġcent":4777,"Ġinadequate":4778,"Ġment":4779,"Ġfashion":4780,"anations":4781,"Ġeternity":4782,"Ġreve":4783,"Ġrepro":4784,"Ġreached":4785,"Ġdam":4786,"Ġdays":4787,"Ġdimin":4788,"Ġhorizon":4789,"Ġpra":4790,"Ġlarge":4791,"ĠĠĠĠĠĠ":4792,"Ġwelf":4793,"Ġforced":4794,"urus":4795,"istics":4796,"ĠTr":4797,"Ġdeath":4798,"Ġdepart":4799,"Ġalleg":4800,"Ġalmost":4801,"oreover":4802,"illed":4803,"Ġuncertain":4804,"Ġspite":4805,"esty":4806,"Ġdoll":4807,"ĠBoth":4808,"admissible":4809,"Ġshap":4810,"ĠFirst":4811,"ĠFreedom":4812,"Ġideality":4813,"Ġrelative":4814,"cap":4815,"Ġchance":4816,"Ġsomewhat":4817,"ĠĠĠĠĠĠĠĠĠĠĠĠĠĠĠĠĠĠ":4818,"agree":4819,"ĠOr":4820,"material":4821,"ĠCom":4822,"Ġemploys":4823,"Ġdiscursive":4824,"Ġindetermin":4825,"Ġindefinite":4826,"ĠHim":4827,"Ġenounce":4828,"Ġextreme":4829,"understood":4830,"Ġoutward":4831,"Ġassured":4832,"Ġproducing":4833,"Ġsynthetically":4834,"Ġincludes":4835,"Ġimply":4836,"Ġviewed":4837,"Ġcorrelate":4838,"Ġestimate":4839,"Ġpowerful":4840,"ĠLet":4841,"Ġseeks":4842,"Ġdecided":4843,"ĠUse":4844,"Ġclearness":4845,"Ġrights":4846,"cribing":4847,"Ġextends":4848,"Ġanswered":4849,"Ġexerc":4850,"Ġreadily":4851,"Ġcommanded":4852,"Ġvirtuous":4853,"ĠTHIS":4854,"Ġoverstep":4855,"Ġholding":4856,"Ġdoubtful":4857,"purely":4858,"Ġpasses":4859,"Ġpreceded":4860,"Ġprogression":4861,"neither":4862,"Ġpeculiarity":4863,"Ġdrawing":4864,"discovered":4865,"Ġanalytically":4866,"categorical":4867,"Ġteacher":4868,"independence":4869,"Ġparalogism":4870,"Ġmomenta":4871,"ĠExperience":4872,"Ġestablishment":4873,"causes":4874,"Ġdestru":4875,"ĠVII":4876,"Ġchecks":4877,"Ġdeclares":4878,"Ġorganon":4879,"constitute":4880,"constitutive":4881,"Ġdeserve":4882,"Ġdispute":4883,"Ġdisputes":4884,"Ġcreated":4885,"Ġsceptical":4886,"Ġfaith":4887,"myself":4888,"special":4889,"Ġgained":4890,"Ġdogmatic":4891,"Ġhighly":4892,"senses":4893,"Ġmagn":4894,"Ġcolour":4895,"ĠANY":4896,"Ġreduced":4897,"Ġunconditionally":4898,"critical":4899,"ĠHowever":4900,"higher":4901,"Supreme":4902,"Ġaccidental":4903,"Ġfirmly":4904,"Ġobscurity":4905,"nexion":4906,"Ġindifference":4907,"Ġindifferent":4908,"psychology":4909,"legislation":4910,"Ġdisappears":4911,"Ġavailable":4912,"Ġenjoyment":4913,"chety":4914,"definition":4915,"observation":4916,"Ġwonder":4917,"Ġbuild":4918,"Ġhistory":4919,"ĠNature":4920,"mentioned":4921,"important":4922,"PREFACE":4923,"Accordingly":4924,"ĠREMARK":4925,"Ġtreated":4926,"Ġwarning":4927,"ĠPhenomena":4928,"Ġtribunal":4929,"aenomenon":4930,"Ġslightest":4931,"Ġwelfare":4932,"affect":4933,"vari":4934,"Ġ-":4935,"Ġous":4936,"Ġinc":4937,"arante":4938,"Äłper":4939,"ostat":4940,"contem":4941,"ÃĥÄ§":4942,"demand":4943,"au":4944,"flu":4945,"search":4946,"Ġance":4947,"evol":4948,"ILITY":4949,"ÃĥÄ§ÃĦ":4950,"AB":4951,"CI":4952,"TY":4953,"cid":4954,"iality":4955,"ken":4956,"uity":4957,"eng":4958,"cell":4959,"armon":4960,"Ġanthrop":4961,"Äłtr":4962,"oreal":4963,"esteem":4964,"irtue":4965,"ned":4966,"noumen":4967,"oad":4968,"small":4969,"Ġz":4970,"Ġers":4971,"Ġinner":4972,"term":4973,"ciation":4974,"construct":4975,"Ġating":4976,"individual":4977,"understand":4978,"Ġchangeable":4979,"arrass":4980,"Ġchanged":4981,"vereign":4982,"Ġusual":4983,"problematical":4984,"?\"":4985,"opp":4986,"word":4987,"Ġinstruct":4988,"Ġfl":4989,"anc":4990,"Ġerect":4991,"Ġred":4992,"Ġday":4993,"asis":4994,"imental":4995,"conduct":4996,"Ġration":4997,"Ġprincip":4998,"sophist":4999,"Ġattack":5000,"Ġ50":5001,"successive":5002,"pathological":5003,"Ġcontempor":5004,"\";":5005,"TRANSCENDENTAL":5006,"UL":5007,"cour":5008,"cases":5009,"homogeneous":5010,"oice":5011,"pet":5012,"poreal":5013,"viz":5014,"way":5015,"inally":5016,"Ġwa":5017,"Ġwid":5018,"Ġwater":5019,"Ġcred":5020,"alf":5021,"Ġinhere":5022,"Ġinstit":5023,"Ġbase":5024,"Ġthy":5025,"Ġthreat":5026,"Ġmut":5027,"Ġmund":5028,"Ġfile":5029,"Ġfoot":5030,"Ġnull":5031,"sem":5032,"Ġrepe":5033,"Ġconject":5034,"still":5035,"Ġhundred":5036,"Ġpride":5037,"Ġuseless":5038,"Ġupright":5039,"Ġexpose":5040,"Ġsuscept":5041,"Ġgif":5042,"Äłu":5043,"ainted":5044,"Ġpropens":5045,"ĠTot":5046,"Ġintensive":5047,"abled":5048,"Ġunb":5049,"Ġunnecessary":5050,"Ġuniform":5051,"Ġrange":5052,"Ġexistences":5053,"Ġviol":5054,"prof":5055,"Ġimprov":5056,"Ġhear":5057,"supreme":5058,"ĠFOR":5059,"Ġquar":5060,"ĠAl":5061,"ĠApp":5062,"ĠAnt":5063,"nowledge":5064,"acks":5065,"unt":5066,"Ġyear":5067,"etween":5068,"Ġarchety":5069,"Ġsynthetic":5070,"ĠSelf":5071,"Ġsubmit":5072,"Ġplurality":5073,"Ġendowed":5074,"ortunity":5075,"proved":5076,"procedure":5077,"Ġremote":5078,"Ġsystems":5079,"Ġexamined":5080,"Ġenabled":5081,"Ġyouth":5082,"Ġentered":5083,"lective":5084,"cognized":5085,"Ġoriginally":5086,"Ġshowing":5087,"Ġquantum":5088,"ĠMe":5089,"Ġconsidering":5090,"Ġdivisible":5091,"Ġadvisable":5092,"Ġmatters":5093,"Ġconceal":5094,"luences":5095,"Ġremaining":5096,"Ġdecom":5097,"Ġdecision":5098,"Ġpresupposing":5099,"Ġconfusion":5100,"Ġclos":5101,"Ġaffinity":5102,"Ġplease":5103,"Ġconforms":5104,"Ġsetting":5105,"Ġarranged":5106,"Ġelaps":5107,"Ġimperfect":5108,"Ġregressive":5109,"Ġpersonality":5110,"Ġexert":5111,"Ġseemed":5112,"Ġindicating":5113,"doctrine":5114,"Ġconducted":5115,"Ġessence":5116,"Ġfallacy":5117,"Ġsuperior":5118,"happens":5119,"Ġsingular":5120,"Ġvolunteers":5121,"000":5122,"Ġtreatise":5123,"Ġbrings":5124,"limitation":5125,"Ġdistributed":5126,"apperception":5127,"Ġintuitive":5128,"pecial":5129,"Ġcontinued":5130,"intelligence":5131,"ĠUnity":5132,"ordinated":5133,"ĠExposition":5134,"Ġexhibited":5135,"questions":5136,"Ġdesignate":5137,"Ġobservations":5138,"Ġbecoming":5139,"synthetically":5140,"ING":5141,"Ġsurface":5142,"Ġsorts":5143,"Ġroad":5144,"Ġpostulates":5145,"ĠKnowledge":5146,"Ġoffice":5147,"cogitated":5148,"Ġacquainted":5149,"ĠÃĨ":5150,"Ġgeometrical":5151,"demonstration":5152,"Ġpeace":5153,"Ġcollection":5154,"Ġmechanical":5155,"www":5156,"Ġdirections":5157,"Ġprudent":5158,"Ġaccidents":5159,"Ġproducts":5160,"Ġanalogous":5161,"Ġassigned":5162,"ĠProof":5163,"ĠProble":5164,"Ġhumili":5165,"Ġobstin":5166,"supersensible":5167,"ertitude":5168,"Ġpunishment":5169,"Ġcapacity":5170,"ĠPhilos":5171,"ĠPhys":5172,"consequences":5173,"Ġancient":5174,"Ġancients":5175,"imagination":5176,"Ġdevelopment":5177,"Ġsublime":5178,"feeling":5179,"arguments":5180,"obligation":5181,"Ġmultitude":5182,"Ġprospect":5183,"ĠDivision":5184,"IRST":5185,"Ġtwofold":5186,"Ġheaven":5187,"ĠEpicurus":5188,"Ġappeal":5189,"Ġgradually":5190,"Ġvanity":5191,"Ġsacr":5192,"Ġcompliance":5193,"ĠIntuition":5194,"ĠDiscipline":5195,"sufficiency":5196,"entirely":5197,"Ġhypostat":5198,"Ġadmiration":5199,"body":5200,"econdly":5201,"Ġsettled":5202,"Ġisolated":5203,"Ġdollars":5204,"Ġelapsed":5205,"80":5206,"barrass":5207,"fig":5208,"omorph":5209,"add":5210,"deser":5211,"apodeict":5212,"68":5213,"AG":5214,"Be":5215,"CL":5216,"oast":5217,"po":5218,"Ġure":5219,"ulg":5220,"plex":5221,"abor":5222,"new":5223,"ÃĥÄ¦ÃħÄ¤ÃĥÄ¦ÃħÄ¤ÃĥÄ¦ÃħÄ¤ÃĥÄ¦ÃħÄ¤":5224,"LI":5225,"ael":5226,"Ġaf":5227,"ativ":5228,"ichael":5229,"ÄłT":5230,"Äłsub":5231,"solu":5232,"educ":5233,"echn":5234,"commun":5235,"circ":5236,"limin":5237,"ores":5238,"Ġiv":5239,"icated":5240,"arm":5241,"istinction":5242,"try":5243,"admit":5244,"ĠST":5245,"formal":5246,"syllogism":5247,"Ġcogitable":5248,"apply":5249,"ITED":5250,"AMAG":5251,"Being":5252,"OL":5253,"inal":5254,"alid":5255,"espect":5256,"Ġmov":5257,"Ġfix":5258,"Ġreconci":5259,"ury":5260,"istence":5261,"ifies":5262,"ĠBe":5263,"Ġhes":5264,"etch":5265,"ression":5266,"aggreg":5267,"Ġposited":5268,"Ġamount":5269,"Ġproductive":5270,"lected":5271,"determinate":5272,"Ġselfish":5273,"account":5274,"works":5275,"desire":5276,"Ġrestricted":5277,"Ġstrugg":5278,"antecedent":5279,"Ġomnipot":5280,"fluous":5281,",[":5282,";_":5283,"Book":5284,"Our":5285,"based":5286,"basis":5287,"eavoured":5288,"gives":5289,"junction":5290,"sus":5291,"uct":5292,"virtue":5293,"wish":5294,"Ġten":5295,"Ġtechn":5296,"Ġsite":5297,"icial":5298,"Ġinconsistent":5299,"Ġbott":5300,"ories":5301,"Ġmid":5302,"Ġfiction":5303,"Ġflatter":5304,"Ġrevol":5305,"Ġdue":5306,"Ġbea":5307,"omogeneity":5308,"otle":5309,"Ġhouse":5310,"Ġprint":5311,"osen":5312,"Ġonline":5313,"owers":5314,"Ġsupposing":5315,"Äłch":5316,"verse":5317,"perhaps":5318,"embr":5319,"Ġdeal":5320,"Ġunchangeable":5321,"âĢĶâĢľ":5322,"Ġ(Â§":5323,"Ġtherewith":5324,"Ġrad":5325,"Ġrash":5326,"Ġroyal":5327,"Ġsovereign":5328,"ideal":5329,"ĊĊĠ":5330,"ĊĊĠĠĠĠĠĠĠ":5331,"Ġvis":5332,"Ġwilling":5333,"adistinction":5334,"Ġformation":5335,"Ġnoble":5336,"Ġshar":5337,"Ġshare":5338,"ements":5339,"Ġadmission":5340,"ĠPossib":5341,"Ġworlds":5342,"fered":5343,"Ġchosen":5344,"speculation":5345,"Ġmach":5346,"Ġfarther":5347,"Ġcompleted":5348,"Ġbelow":5349,"Ġcontact":5350,"ĠGree":5351,"ĠWARRAN":5352,"Ġgrow":5353,"Ġgrand":5354,"Ġcontrast":5355,"arest":5356,"Ġdesp":5357,"ĠHart":5358,"Ġfees":5359,"Ġenumer":5360,"Ġagent":5361,"Ġgrounded":5362,"ĠEX":5363,"Ġmaximum":5364,"Ġpossessing":5365,"aving":5366,"Ġsimplicity":5367,"Ġattended":5368,"anges":5369,"Ġimpressions":5370,"Ġfeels":5371,"thereby":5372,"Ġmodel":5373,"Ġinfall":5374,"Ġexplanations":5375,"ĠMan":5376,"Ġwherein":5377,"Ġproceeded":5378,"regulative":5379,"Ġcomput":5380,"Ġcompens":5381,"Ġseeing":5382,"Ġfreely":5383,"Ġ12":5384,"Ġsupplied":5385,"Ġphysico":5386,"Ġdirects":5387,"OND":5388,"Ġarrange":5389,"Ġarriving":5390,"Ġoccurs":5391,"perceptions":5392,"Ġanswers":5393,"Ġimaginary":5394,"Ġparticularly":5395,"Ġguarante":5396,"Ġindicated":5397,"contradictions":5398,"Ġmethods":5399,"Ġoverlook":5400,"Ġbelieves":5401,"Ġequip":5402,"Ġtheoretically":5403,"Ġposted":5404,"Ġboundaries":5405,"Ġexplaining":5406,"Ġmisunderstanding":5407,"Ġapplying":5408,"Ġlooking":5409,"Ġlooked":5410,"Ġmaintains":5411,"Ġadditions":5412,"Ġfalsely":5413,"philosophical":5414,"brought":5415,"Ġdispositions":5416,"Ġobtaining":5417,"Ġtransition":5418,"remains":5419,"Ġrecognizes":5420,"Ġexclude":5421,"Ġ30":5422,"applicable":5423,"Ġpursuit":5424,"Ġpursues":5425,"produce":5426,"produced":5427,"Ġadvancement":5428,"confidence":5429,"universality":5430,"Ġpostulated":5431,"perfection":5432,"Ġpositively":5433,"Ġwitness":5434,"possesses":5435,"Ġfault":5436,"Ġaccepted":5437,"Ġcircumstance":5438,"Ġdogmatism":5439,"Ġhappened":5440,"Ġdatur":5441,"Ġirre":5442,"Ġkeeping":5443,"pathy":5444,"enetrability":5445,"Ġlabours":5446,"Ġconflicting":5447,"effects":5448,"Ġfanaticism":5449,"Ġreciprocally":5450,"points":5451,"While":5452,"Ġascending":5453,"motive":5454,"Ġelevated":5455,"ĠSystem":5456,"Ġobscure":5457,"Ġaffords":5458,"Ġdangerous":5459,"Consequently":5460,"Ġmarked":5461,"Ġethical":5462,"independently":5463,"Ġsublimity":5464,"Ġusually":5465,"Ġincrease":5466,"Ġexecution":5467,"Ġpersuasion":5468,"ĠChrist":5469,"ĠEmpirical":5470,"difficulties":5471,"dogmat":5472,"ustomed":5473,"Ġaccurately":5474,"OGY":5475,"Ġtalents":5476,"Ġconvinced":5477,"Ġfrequent":5478,"IMITED":5479,"Ġfallacious":5480,"Ġscholastic":5481,"Ġevidently":5482,"Ġcommencement":5483,"Ġspectator":5484,"Ġpremisses":5485,"ĠNew":5486,"Ġundoubtedly":5487,"Ġbreak":5488,"closed":5489,"Ġhidden":5490,"Ġerroneous":5491,"Ġreproach":5492,"Ġshape":5493,"Ġindeterminate":5494,"Ġcontemporaneously":5495,"ĠTotality":5496,"Ġquarter":5497,"Ġbottom":5498,"OD":5499,"ihil":5500,"rept":5501,"let":5502,"lex":5503,"utter":5504,"ÄłI":5505,"Äłar":5506,"qual":5507,"aining":5508,"emonstr":5509,"accident":5510,"destr":5511,"pursu":5512,"veyed":5513,"furn":5514,"Ġpo":5515,"Ġpress":5516,"ÄłF":5517,"Ġates":5518,"Ġru":5519,"pract":5520,"ieve":5521,"accomp":5522,"AC":5523,"ORE":5524,"SIS":5525,"ault":5526,"don":5527,"mist":5528,"mechan":5529,"rog":5530,"rust":5531,"erci":5532,"Ġcour":5533,"anim":5534,"throw":5535,"ÄłN":5536,"ÄłO":5537,"resist":5538,"Ġally":5539,"Ġality":5540,"Ġvice":5541,"exper":5542,"arrow":5543,"argument":5544,"bound":5545,"mong":5546,"yright":5547,"inom":5548,"insepar":5549,"rent":5550,"Ġct":5551,"Ġmixed":5552,"Ġism":5553,"ters":5554,"Äłat":5555,"ulation":5556,"ament":5557,"olf":5558,"Ġsoph":5559,"pons":5560,"mean":5561,"ALEC":5562,"ĠTHESIS":5563,"Ġconven":5564,"olem":5565,"ESIS":5566,"THESIS":5567,"Ġauthorized":5568,"aper":5569,"ient":5570,"pgl":5571,"sed":5572,"want":5573,"Ġted":5574,"Ġain":5575,"atory":5576,"Ġnamed":5577,"Ġascertain":5578,"irth":5579,"Ġaltern":5580,"tains":5581,"Ġrun":5582,"Ġqua":5583,"Ġphilosoph":5584,"disposition":5585,"ableness":5586,"Ġpassing":5587,"upil":5588,"Ġsupported":5589,"Ġearly":5590,"TICAL":5591,"psychological":5592,"Ġaccurate":5593,"ologia":5594,"beginning":5595,"No":5596,"Understanding":5597,"UND":5598,"Whether":5599,"],":5600,"apons":5601,"critique":5602,"hood":5603,"hope":5604,"pperception":5605,"public":5606,"powers":5607,"rance":5608,"rather":5609,"uly":5610,"onically":5611,"itation":5612,"itative":5613,"itles":5614,"Ġofficial":5615,"isen":5616,"ata":5617,"Ġwww":5618,"Ġpaper":5619,"icability":5620,"Ġincomplete":5621,"Ġincomp":5622,"Ġbook":5623,"Ġboast":5624,"Ġmarks":5625,"Ġtouch":5626,"ancing":5627,"Ġnext":5628,"Ġeternal":5629,"Ġego":5630,"seen":5631,"Ġconnexion":5632,"Ġdate":5633,"stead":5634,"oted":5635,"Ġannex":5636,"Ġexempt":5637,"Ġexceptions":5638,"Ġexcell":5639,"Ġlic":5640,"Ġlur":5641,"Ġliving":5642,"Ġlater":5643,"Ġnotice":5644,"Ġsun":5645,"Ġsuit":5646,"thics":5647,"Äłal":5648,"Äłab":5649,"Äłsp":5650,"ogicians":5651,"ulates":5652,"Ġdetr":5653,"acting":5654,"usively":5655,"about":5656,"Ġunf":5657,"taining":5658,"Ġours":5659,"Ġspo":5660,"notions":5661,"Ġvac":5662,"Ġtried":5663,"aded":5664,"Ġformulae":5665,"suppose":5666,"Ġsees":5667,"Ġcognizing":5668,"Ġmankind":5669,"unavoidable":5670,"Ġsubjecting":5671,"ĠPRIN":5672,"Ġeverywhere":5673,"ĠSome":5674,"Ġphaenomenon":5675,"enses":5676,"ĠNor":5677,"Ġsubstit":5678,"ĠInformation":5679,"Ġpresently":5680,"Ġcontempt":5681,"ÃĦÅĤf":5682,"forms":5683,"formed":5684,"Ġlimiting":5685,"Ġrequiring":5686,"Ġowner":5687,"within":5688,"others":5689,"inev":5690,"Ġindefinitum":5691,"Ġenounces":5692,"âĢĿâĢĶ":5693,"Ġextinction":5694,"Ġformerly":5695,"Ġgroundless":5696,"ĠEither":5697,"Ġeffected":5698,"Ġassent":5699,"Ġassure":5700,"Ġrealization":5701,"Ġjustly":5702,"Ġentertain":5703,"Ġentitle":5704,"avid":5705,"many":5706,"physico":5707,"Ġoriginating":5708,"ĠWeb":5709,"fulness":5710,"Ġinvalid":5711,"Ġinfluences":5712,"Ġcogitates":5713,"ĠMoreover":5714,"yss":5715,"rase":5716,"phenomenal":5717,"Ġdivide":5718,"Ġdivisibility":5719,"Ġcompetent":5720,"Ġ19":5721,"Ġpredicated":5722,"Ġconformed":5723,"Ġconformably":5724,"TITHESIS":5725,"Ġarrived":5726,"Ġelabor":5727,"Ġregressus":5728,"Ġinfinitely":5729,"Ġneeds":5730,"Ġresulting":5731,"Ġmodern":5732,"Ġantinom":5733,"Ġindication":5734,"HAT":5735,"Ġelementary":5736,"Ġreaders":5737,"become":5738,"Ġsolic":5739,"Ġsolid":5740,"Ġsolve":5741,"Ġspecific":5742,"Ġholder":5743,"Ġcoinc":5744,"Ġprovince":5745,"Ġinstinct":5746,"Ġharm":5747,"Ġdenom":5748,"Ġelsewhere":5749,"ocr":5750,"extent":5751,"Ġgenerated":5752,"Ġmaintaining":5753,"Ġpaths":5754,"Ġadds":5755,"Ġconjoin":5756,"category":5757,"Ġjudged":5758,"Ġjudging":5759,"Ġtreating":5760,"Ġtreatment":5761,"Ġoperating":5762,"Ġintrinsic":5763,"Ġcorrectly":5764,"Ġpretended":5765,"Ġamongst":5766,"Ġintuite":5767,"Ġcontinuity":5768,"required":5769,"Ġcomparative":5770,"Ġmomentum":5771,"justice":5772,"Ġcombat":5773,"Ġexcludes":5774,"Ġexclusively":5775,"Ġspontaneously":5776,"Ġkey":5777,"inclinations":5778,"appears":5779,"appearance":5780,"Ġapodeictically":5781,"consistency":5782,"employed":5783,"Ġavoided":5784,"Ġinevitable":5785,"Ġseparated":5786,"Ġacquired":5787,"presupposed":5788,"Ġopportunity":5789,"ĠStill":5790,"Ġdogmatist":5791,"satisfactory":5792,"analysis":5793,"Ġtaught":5794,"ĠANAL":5795,"Ġ90":5796,"Ġexperiences":5797,"Ġimplied":5798,"criticism":5799,"greater":5800,"Ġdefend":5801,"Ġassociation":5802,"attainable":5803,"Ġfourth":5804,"Ġwriting":5805,"Ġreceives":5806,"Ġconfined":5807,"Ġenlargement":5808,"Ġdiscussions":5809,"motion":5810,"rests":5811,"posteriori":5812,"maxims":5813,"indicate":5814,"Ġimpulse":5815,"Ġreckoned":5816,"Ġsubsumption":5817,"Ġauthorize":5818,"Ġspiritual":5819,"Ġaccompany":5820,"assertions":5821,"ikes":5822,"Ġmoon":5823,"Ġmoving":5824,"atient":5825,"Ġmulti":5826,"ĠDivine":5827,"Ġmediately":5828,"concerned":5829,"signification":5830,"Ġprimary":5831,"Ġderivative":5832,"Ġcosts":5833,"Ġconstantly":5834,"ĠMorality":5835,"preceding":5836,"ĠNothing":5837,"deduced":5838,"philosophers":5839,"Ġprepare":5840,"Ġsubstantial":5841,"Ġconfirmation":5842,"ĠSECTION":5843,"ĠDIALEC":5844,"Ġmoderate":5845,"elements":5846,"Ġinjurious":5847,"Ġtype":5848,"Ġlocated":5849,"ĠMathemat":5850,"solely":5851,"source":5852,"Ġlinks":5853,"Ġreplacement":5854,"ĠCategories":5855,"Ġpresumption":5856,"Ġwonderful":5857,"ength":5858,"Ġflow":5859,"Ġrationis":5860,"Ġdecomposition":5861,"ĠÃĨsthetic":5862,"ĠPhilosophy":5863,"Ġheavenly":5864,"Ġsacrifice":5865,"soluble":5866,"liminary":5867,"ĠGreek":5868,"Ġequipment":5869,"ĠChristian":5870,"Ġsophism":5871,"pglaf":5872,"Per":5873,"Ġos":5874,"utic":5875,"Äłhe":5876,"Äłth":5877,"emper":5878,"sual":5879,"excl":5880,"class":5881,"ÃĦÄ":5882,"sym":5883,"discern":5884,"design":5885,"comprehend":5886,"destroy":5887,"ony":5888,"organ":5889,"cil":5890,"dev":5891,"ÃĦÅĤs":5892,"remark":5893,"ROD":5894,"UCTION":5895,"ION":5896,"Leibnitz":5897,"Sp":5898,"St":5899,"Un":5900,"ym":5901,"Ġou":5902,"rection":5903,"Ġpat":5904,"Äłbe":5905,"Äłpro":5906,"istrib":5907,"Ġative":5908,"igination":5909,"Ġgoing":5910,"haust":5911,"invol":5912,"explain":5913,"PLES":5914,"ATIONS":5915,"contempl":5916,"meaning":5917,"41":5918,"EAS":5919,"Metaphys":5920,"SEC":5921,"harmon":5922,"treat":5923,"Ġ***":5924,"infin":5925,"enevol":5926,"annihil":5927,"Äłsh":5928,"ifferent":5929,"defect":5930,"definite":5931,"Ġves":5932,"get":5933,"adox":5934,"Ġstead":5935,"pont":5936,"evil":5937,"discus":5938,"ĠVI":5939,"ORAL":5940,"convin":5941,"RODUCTION":5942,"ry":5943,"soul":5944,"Ġot":5945,"Ġost":5946,"reement":5947,"Ġfat":5948,"Ġfixed":5949,"ancy":5950,"Ġell":5951,"essential":5952,"urean":5953,"ÄłH":5954,"Äłit":5955,"tray":5956,"exposition":5957,"Ġparticip":5958,"previous":5959,"Ġserved":5960,"mell":5961,"Ġconsiderable":5962,"ĠConcl":5963,"Ġchanging":5964,"production":5965,"Ġfair":5966,"Ġsufficiency":5967,"Ġsteps":5968,"ICT":5969,"Ġindubit":5970,"dogmatical":5971,"secure":5972,"CIPLES":5973,"!\"":5974,"Pure":5975,"Please":5976,"PART":5977,"Such":5978,"Secondly":5979,"TRODUCTION":5980,"ade":5981,"aseless":5982,"came":5983,"further":5984,"iability":5985,"logic":5986,"life":5987,"makes":5988,"pute":5989,"rules":5990,"uality":5991,"yllogism":5992,"Ã¦":5993,"Ġtitles":5994,"heres":5995,"Ġomit":5996,"Ġoppose":5997,"receive":5998,"itates":5999,"Ġoffer":6000,"Ġsil":6001,"Ġportion":6002,"Ġpupil":6003,"Ġpatient":6004,"Ġinex":6005,"Ġinability":6006,"Ġinternally":6007,"Ġinadmissible":6008,"Ġinsoluble":6009,"especially":6010,"Ġband":6011,"Ġbind":6012,"Ġbirth":6013,"Ġtopic":6014,"anci":6015,"Ġnarrow":6016,"Ġelectr":6017,"seem":6018,"Ġreaction":6019,"Ġbears":6020,"Ġbetray":6021,"Ġbecame":6022,"stone":6023,"utility":6024,"Ġhttp":6025,"Ġhalf":6026,"Ġhomogeneity":6027,"Ġprime":6028,"theoretic":6029,"impossibility":6030,"oses":6031,"Ġexternally":6032,"Ġexposing":6033,"Ġlot":6034,"Ġlab":6035,"Ġlicense":6036,"Ġlength":6037,"Ġweal":6038,"termed":6039,"Ġgave":6040,"three":6041,"ura":6042,"ÄłW":6043,"Äłi":6044,"Äłas":6045,"ĠIs":6046,"istotle":6047,"ifying":6048,"permanent":6049,"Ġproposes":6050,"ĠTake":6051,"ender":6052,"Ġdece":6053,"uses":6054,"Ġunfortun":6055,"ĠĠĠĠĠĠĠĠĠĠĠĠĠĠĠ":6056,"Ġtherefrom":6057,"trademark":6058,"Ġspurious":6059,"ecessity":6060,"hering":6061,"Ġvoice":6062,"Ġtrust":6063,"Ġtrack":6064,"Ġtrying":6065,"geometr":6066,"Ġimpose":6067,"Ġheight":6068,"Ġabide":6069,"adly":6070,"admitted":6071,"Ġperplex":6072,"ĠFIRST":6073,"Ġstatus":6074,"whose":6075,"ĠAb":6076,"Ġaccustomed":6077,"ulture":6078,"ultaneous":6079,"universe":6080,"ĠPart":6081,"Ġdissimilar":6082,"Ġknowing":6083,"Ġpreliminary":6084,"Ġary":6085,"Ġarisen":6086,"Ġchild":6087,"Ġrepresenting":6088,"Ġmyst":6089,"finally":6090,"Ġdiffer":6091,"ortions":6092,"composition":6093,"Ġlimitative":6094,"Ġconnecting":6095,"prove":6096,"Ġdistance":6097,"icious":6098,"Ġrationalis":6099,"ĠHuman":6100,"Ġfell":6101,"Ġenclosed":6102,"lessness":6103,"Ġprescribed":6104,"alytical":6105,"Ġthinker":6106,"Ġthinkers":6107,"Ġassist":6108,"Ġassistance":6109,"Ġrealized":6110,"ounced":6111,"ĠDIS":6112,"ĠDAMAG":6113,"ĠDavid":6114,"Ġgreatly":6115,"Ġimped":6116,"Ġviews":6117,"Ġconstituting":6118,"thereof":6119,"Ġinvisible":6120,"Ġshowed":6121,"Ġintelligent":6122,"Ġintelligences":6123,"ĠMichael":6124,"ĠMORAL":6125,"Ġstrange":6126,"Ġcharacteristics":6127,"Ġcompass":6128,"Ġadvancing":6129,"Ġdeducing":6130,"Ġreside":6131,"ĊĊĠĠĠĠĠĠĠĠĠĠĠĠĠĠĠĠĠĠĠĠĠĠĠĠĠĠĠĠĠĠĠĠ":6132,"Ġattains":6133,"Ġphysiology":6134,"Ġcontentment":6135,"Ġdirecting":6136,"Ġconformable":6137,"ENCE":6138,"Ġsettle":6139,"Ġestablishes":6140,"Ġlegal":6141,"Ġdistinguishes":6142,"Ġnumbers":6143,"Ġmodific":6144,"Ġreadable":6145,"Ġsolved":6146,"Ġdemonstrations":6147,"Ġ25":6148,"Ġproviding":6149,"Ġpassed":6150,"Ġrendering":6151,"simply":6152,"Ġawaken":6153,"bles":6154,"Ġlegislating":6155,"Ġagrees":6156,"examples":6157,"Ġinferring":6158,"Ġmediating":6159,"Ġintuiting":6160,"Ġstrictest":6161,"Ġcomparing":6162,"belief":6163,"ĠExistence":6164,"Ġobservance":6165,"Ġantecedently":6166,"Ġabstracted":6167,"Ġpursued":6168,"ĠAristotle":6169,"property":6170,"Ġeye":6171,"Ġrestriction":6172,"Ġrestrictions":6173,"Ġdeliber":6174,"Ġintroduction":6175,"Ġintroducing":6176,"Ġdeclare":6177,"considerations":6178,"schema":6179,"Ġfurnished":6180,"Ġdeserving":6181,"metaphysical":6182,"Ġoffers":6183,"specif":6184,"presupposition":6185,"Ġfavourable":6186,"Ġfigures":6187,"interests":6188,"original":6189,"belongs":6190,"Ġirresist":6191,"freely":6192,"Ġframe":6193,"Ġframed":6194,"Ġcountry":6195,"likewise":6196,"Ġtranscends":6197,"ĊĊĠĠĠĠĠĠĠĠĠĠĠĠĠĠĠĠĠĠĠĠĠ":6198,"Ġadmixture":6199,"observed":6200,"corresponds":6201,"However":6202,"Ġprobability":6203,"Ġclasses":6204,"Ġcomprehends":6205,"Ġfancy":6206,"powerful":6207,"Ġsketch":6208,"Whatever":6209,"Ġparagraphs":6210,"Ġopponents":6211,"Ġwritten":6212,"Ġascend":6213,"Ġenlarge":6214,"Ġbenefit":6215,"Ġcontribute":6216,"Ġcontributes":6217,"Ġinseparable":6218,"distinguishable":6219,"ĠDeity":6220,"Ġ2002":6221,"Ġqualities":6222,"Ġqualitative":6223,"Ġnecessitated":6224,"Ġpaying":6225,"Ġsubsumed":6226,"expression":6227,"Ġdeveloped":6228,"iking":6229,"Ġrenounce":6230,"pretensions":6231,"Ġexecuted":6232,"Ġdisplaying":6233,"ĠDoctrine":6234,"established":6235,"instead":6236,"Ġtransgression":6237,"Ġfrequently":6238,"shown":6239,"Ġobey":6240,"Ġadduced":6241,"ĠSECOND":6242,"Ġsympathy":6243,"Ġclosely":6244,"leads":6245,"Ġforbids":6246,"Ġsuffer":6247,"Ġattraction":6248,"ĊĊĊĊĠĠĠĠĠĠĠĠĠĠĠĠĠĠĠĠĠĠĠĠĠĠĠĠĠĠĠĠĠĠĠĠ":6249,"Ġcultivation":6250,"Ġridic":6251,"Ġapproximate":6252,"Ġobstacle":6253,"ription":6254,"Ġarchitectonic":6255,"Ġdreams":6256,"ĠStoics":6257,"Ġpropriety":6258,"Ġembrace":6259,"Ġalleged":6260,"Ġdestruction":6261,"Ġbuilding":6262,"Ġconjecture":6263,"Ġgifts":6264,"Ġpropensity":6265,"Ġimprovement":6266,"Ġyears":6267,"Ġcloser":6268,"Ġhumiliation":6269,"figure":6270,"apodeictic":6271,"ativum":6272,"oresaid":6273,"Ġmovements":6274,"Ġtechnical":6275,"Ġradical":6276,"utterly":6277,"Ġelectronically":6278,"ĠDAMAGES":6279,"Ġmodifications":6280,"15":6281,"Gr":6282,"UD":6283,"Ġach":6284,"Ġnihil":6285,"jected":6286,"oft":6287,"adm":6288,"prev":6289,"assign":6290,"accur":6291,"Ġmission":6292,"corrupt":6293,"THE":6294,"support":6295,"accompan":6296,"ÃĦÄ¬":6297,"..":6298,"Ar":6299,"Tr":6300,"ax":6301,"hon":6302,"hab":6303,"ipp":6304,"alle":6305,"ices":6306,"Ġish":6307,"que":6308,"endeavour":6309,"Ġably":6310,"exc":6311,"ÃĦÅĤre":6312,"arrant":6313,"becom":6314,"process":6315,"CEP":6316,"advance":6317,"De":6318,"bal":6319,"bol":6320,"cosm":6321,"eed":6322,"king":6323,"spont":6324,"incre":6325,"introdu":6326,"ndeed":6327,"Ġlest":6328,"deutic":6329,"umb":6330,"transc":6331,"posit":6332,"exhib":6333,"Ġyield":6334,"iece":6335,"agger":6336,"Ġcontrover":6337,"prob":6338,"Ġentity":6339,"ocin":6340,"EMENT":6341,"absurd":6342,"ETH":6343,"GRE":6344,"He":6345,"METH":6346,"Not":6347,"access":6348,"dated":6349,"ii":6350,"ians":6351,"merit":6352,"peculiar":6353,"uit":6354,"ĠQu":6355,"heter":6356,"Ġound":6357,"reckon":6358,"erity":6359,"icate":6360,"orn":6361,"sect":6362,"ivil":6363,"Ġanim":6364,"ÄłG":6365,"Äłimp":6366,"ciated":6367,"Ġcast":6368,"Ġsoever":6369,"exception":6370,"forth":6371,"spe":6372,"Ġgrat":6373,"Ġconceivable":6374,"TIQU":6375,"aneity":6376,"*****":6377,"guard":6378,"Produ":6379,"declar":6380,"RIB":6381,"proportion":6382,"answer":6383,"PHY":6384,"Ph":6385,"did":6386,"effort":6387,"met":6388,"moment":6389,"sight":6390,"ton":6391,"text":6392,"uary":6393,"uge":6394,"Ġtext":6395,"refer":6396,"ening":6397,"ero":6398,"Ġmine":6399,"Ġfil":6400,"Ġect":6401,"Ġease":6402,"section":6403,"Ġrestr":6404,"oss":6405,"Ġlu":6406,"Ġweb":6407,"thorough":6408,"uries":6409,"Äłis":6410,"Äłse":6411,"cient":6412,"ogant":6413,"ush":6414,"estim":6415,"Ġtrace":6416,"arying":6417,"Ġchief":6418,"ĠGr":6419,"ÃĦÅĤin":6420,"lucid":6421,"Ġconsistency":6422,"Ġworthiness":6423,"Ġequality":6424,"ocation":6425,"extensive":6426,"desc":6427,"Ġprobable":6428,"supply":6429,"atiocin":6430,"OGIC":6431,"establish":6432,"Ġconvincing":6433,"RITIQU":6434,"icked":6435,"Ġfruitful":6436,"Ġaccompanied":6437,"ODOL":6438,"METHODOL":6439,"16":6440,"CTICAL":6441,"IES":6442,"OS":6443,"So":6444,"Since":6445,"You":6446,"autonomy":6447,"bits":6448,"bonum":6449,"cision":6450,"course":6451,"day":6452,"done":6453,"dialectic":6454,"gulative":6455,"http":6456,"liberty":6457,"mixed":6458,"na":6459,"sur":6460,"sch":6461,"said":6462,"ĉĉ":6463,"Ġll":6464,"Ġax":6465,"onations":6466,"infinitum":6467,"Ġtheories":6468,"encies":6469,"Ġwished":6470,"Ġcat":6471,"Ġsize":6472,"Ġpolem":6473,"ale":6474,"aled":6475,"already":6476,"Ġinn":6477,"Ġinsist":6478,"Ġincomprehensible":6479,"Ġinconsistency":6480,"Ġbon":6481,"Ġburd":6482,"Ġthou":6483,"ctory":6484,"Ġfate":6485,"Ġelective":6486,"Ġretain":6487,"Ġreview":6488,"Ġdark":6489,"Ġbegan":6490,"oments":6491,"arise":6492,"Ġprag":6493,"Ġexagger":6494,"Ġlate":6495,"ptions":6496,"iboly":6497,"Ġsust":6498,"Ġsupposes":6499,"ÄłB":6500,"ÄłL":6501,"ĠIll":6502,"ifference":6503,"perceive":6504,"uler":6505,"empiricism":6506,"ĠThen":6507,"conceive":6508,"conjunction":6509,"Ġarena":6510,"chain":6511,"Ġdeceived":6512,"active":6513,"actual":6514,"using":6515,"illion":6516,"away":6517,"ames":6518,"Ġunit":6519,"Ġunexpected":6520,"Ġcompr":6521,"Ġcomposed":6522,"Ġround":6523,"Ġrace":6524,"Ġratio":6525,"Ġruler":6526,"Ġemail":6527,"Ġembarrass":6528,"Ġvit":6529,"Ġvict":6530,"Ġvag":6531,"Ġdeterminative":6532,"Ġdoing":6533,"Ġconditional":6534,"Ġconditionally":6535,"Ġhealth":6536,"Ġabyss":6537,"Ġperce":6538,"allow":6539,"Ġsynon":6540,"indu":6541,"Ġuser":6542,"antly":6543,"ĠFundamental":6544,"Ġseven":6545,"Ġsevere":6546,"Ġste":6547,"presentation":6548,"whatever":6549,"ĠAfter":6550,"ĠASC":6551,"ĠApperception":6552,"ĠAGRE":6553,"unable":6554,"unknown":6555,"unciation":6556,"poned":6557,"ponent":6558,"ĠPRA":6559,"Ġdispens":6560,"Ġdisgu":6561,"ets":6562,"etary":6563,"Ġleaving":6564,"herence":6565,"Ġaround":6566,"Ġarose":6567,"Ġchar":6568,"Ġphrase":6569,"elt":6570,"ressed":6571,"oping":6572,"opinion":6573,"agreement":6574,"Ġsubter":6575,"Ġnear":6576,"Ġmast":6577,"ĠIntrodu":6578,"Ġplacing":6579,"Ġendeavoured":6580,"ĠGer":6581,"ĠGood":6582,"ĠWill":6583,"ĠWhere":6584,"ignor":6585,"composite":6586,"ritical":6587,"ĠCRITIQU":6588,"serves":6589,"Ġrequest":6590,"Ġdescribe":6591,"Ġdistant":6592,"Ġdistress":6593,"arium":6594,"Ġcalls":6595,"Ġcalling":6596,"Ġencour":6597,"ĠEnd":6598,"ĠEND":6599,"ĠRational":6600,"Ġprescribe":6601,"Ġsensibly":6602,"Ġrealize":6603,"Ġcritic":6604,"Ġattach":6605,"Ġattacks":6606,"ĠDes":6607,"Ġsensuously":6608,"Ġcorporeal":6609,"Ġquanta":6610,"ĠMis":6611,"ĠRegulative":6612,"appe":6613,"Ġstrike":6614,"Ġstrives":6615,"Ġanalysing":6616,"Ġrefuse":6617,"Ġrefers":6618,"Ġdiverse":6619,"ĠLogical":6620,"ĠLIMITED":6621,"ĠLOGIC":6622,"Ġcompels":6623,"Ġadvances":6624,"Ġcontradicts":6625,"Ġresistance":6626,"Ġconceiving":6627,"Ġconcluding":6628,"Ġremained":6629,"Ġ178":6630,"Ġdecides":6631,"Ġlogically":6632,"maj":6633,"Ġdiscoverable":6634,"knows":6635,"Ġsatisfies":6636,"TIES":6637,"Ġacknowledge":6638,"practically":6639,"Ġedition":6640,"Ġeditions":6641,"Ġobserving":6642,"Ġespecial":6643,"Ġseemingly":6644,"Ġmodest":6645,"Ġaccords":6646,"Ġattempting":6647,"Ġneglect":6648,"subjectively":6649,"aims":6650,"Ġbelieved":6651,"Ġspecially":6652,"Ġideals":6653,"ĠPrint":6654,"Ġcontinually":6655,"Ġtook":6656,"Ġessay":6657,"Ġinstances":6658,"Ġexpectations":6659,"Ġpassive":6660,"Ġdenies":6661,"ocke":6662,"Ġaffects":6663,"Ġallows":6664,"Ġsuperfluous":6665,"Ġcopying":6666,"Ġyourself":6667,"giving":6668,"accordingly":6669,"shall":6670,"Ġjustifies":6671,"Ġinquiring":6672,"ĠAnalytical":6673,"Ġconvince":6674,"Ġthoroughness":6675,"Ġpretend":6676,"Ġobtains":6677,"Ġinvolve":6678,"Ġinvolving":6679,"purposes":6680,"pensably":6681,"impenetrability":6682,"justified":6683,"remain":6684,"attention":6685,"Ġrecognise":6686,"Ġabstracto":6687,"compelled":6688,"Ġoccupation":6689,"Ġdonate":6690,"Ġsurpr":6691,"separate":6692,"Ġdelusive":6693,"Ġconstructing":6694,"productive":6695,"Ġapproach":6696,"consists":6697,"Ġmanifestations":6698,"Ġdecline":6699,"Ġletter":6700,"Ġorganization":6701,"Ġadequately":6702,"constitution":6703,"Ġcreator":6704,"Ġcreating":6705,"Ġcreatures":6706,"Therefore":6707,"insight":6708,"grounded":6709,"Ġacquire":6710,"Ġacquaint":6711,"guidance":6712,"ĊĠĠĠĠĠĠĠĠĠĠĠĠĠ":6713,"Ġproblematically":6714,"Ġfigur":6715,"moreover":6716,"Ġdefinitely":6717,"Ġfri":6718,"realization":6719,"Ġcounsel":6720,"occasion":6721,"ĊĊĠĠĠĠĠĠĠĠĠĠĠĠĠĠĠĠĠĠĠĠĠĠ":6722,"Ġurged":6723,"greatest":6724,"Ġsecurely":6725,"Ġfilling":6726,"Ġfilled":6727,"Ġdefence":6728,"Ġdefici":6729,"Ġmeets":6730,"Suppose":6731,"Ġfancies":6732,"Ġfailed":6733,"Ġultimately":6734,"ators":6735,"attained":6736,"ĠImpossibility":6737,"Ġdetected":6738,"Ġdetailed":6739,"Ġinduce":6740,"Ġwritings":6741,"Ġascent":6742,"Ġbeneficial":6743,"ĊĠĠĠĠĠĠĠĠĠĠĠĠĠĠĠĠĠ":6744,"Ġsentiment":6745,"Ġsentiments":6746,"Ġsucceeded":6747,"Ġmistakes":6748,"Ġmistaken":6749,"Ġpunct":6750,"Ġperforms":6751,"Ġ2001":6752,"Ġpayments":6753,"Ġstrengthen":6754,"Ġfitness":6755,"consequence":6756,"Ġestimated":6757,"Ġestimating":6758,"Ġescap":6759,"Ġmeritorious":6760,"operation":6761,"reflection":6762,"fortune":6763,"Ġstruct":6764,"Ġfulfilled":6765,"Ġdevoted":6766,"Ġdisplayed":6767,"Ġcomplying":6768,"Ġpromotion":6769,"Ġpromoting":6770,"difficulty":6771,"Ġprimarily":6772,"Ġderivation":6773,"Ġspecified":6774,"Ġhistorical":6775,"transition":6776,"Ġheavy":6777,"ĠNOT":6778,"concepts":6779,"Ġtalk":6780,"precedes":6781,"Ġsubsists":6782,"Ġesteemed":6783,"Ġweakness":6784,"Ġimitated":6785,"attribute":6786,"Ġanticipate":6787,"Ġcontemplation":6788,"Ġobeying":6789,"Ġwidely":6790,"Ġhinder":6791,"Ġhindrance":6792,"Ġfallacies":6793,"Ġaccomplish":6794,"Ġaccomplished":6795,"Analytic":6796,"Without":6797,"occupied":6798,"statements":6799,"Ġalteration":6800,"Ġdeeply":6801,"ĠObjects":6802,"Ġserviceable":6803,"Ġimpartial":6804,"ĠMetaphysic":6805,"Ġobstacles":6806,"Ġgovernment":6807,"¢Ä¢Ä":6808,"Ġaston":6809,"authority":6810,"unconditional":6811,"unconditionally":6812,"inquiry":6813,"inquiries":6814,"Ġtendency":6815,"Ġfictions":6816,"Ġfictitious":6817,"Ġdimensions":6818,"Ġdeprive":6819,"Ġundertaking":6820,"Ġambiguity":6821,"generally":6822,"indispensable":6823,"Ġpraise":6824,"ausible":6825,"ABILITY":6826,"Ġprincipal":6827,"Ġwidest":6828,"Ġmundus":6829,"Ġrepeated":6830,"Ġuprightness":6831,"Ġsusceptible":6832,"ĠAlthough":6833,"ĠAntinomy":6834,"ĠMethod":6835,"Ġexertions":6836,"Before":6837,"Ġaforesaid":6838,"aggregate":6839,"embracing":6840,"ĠWARRANTY":6841,"Ġcomputer":6842,"mechanism":6843,"rogative":6844,"experiences":6845,"inseparably":6846,"Ġincompetent":6847,"Ġexcellent":6848,"ĠPRINCIPLES":6849,"Ġantinomies":6850,"Ġdenomin":6851,"Ġmultiplicity":6852,"ĠDIALECTIC":6853,"Ġsophisms":6854,"Metaphysic":6855,"infinity":6856,"enevolence":6857,"Ġfatal":6858,"Ã¦deutic":6859,"Ġdeceit":6860,"Ġirresistible":6861,"METHODOLOGY":6862,"Ġpolemic":6863,"ĠASCII":6864,"ĠPRACTICAL":6865,"ĠCRITIQUE":6866,"vation":6867,"Ġay":6868,"revol":6869,"analog":6870,"Ġud":6871,"ÄłR":6872,"Äłac":6873,"Äłcom":6874,"Äłmis":6875,"del":6876,"Ġip":6877,"contest":6878,"confirm":6879,"Ide":6880,"TRIB":6881,"bar":6882,"mag":6883,"Ġrom":6884,"ĠÄłÄłÄłÄł":6885,"itiz":6886,"enjoy":6887,"Ġci":6888,"Ġced":6889,"Ġition":6890,"urb":6891,"ogr":6892,"det":6893,"piric":6894,"agon":6895,"duc":6896,"ÃĦÅĤc":6897,"Ġposit":6898,"avag":6899,"occur":6900,"Princi":6901,"anthropomorph":6902,"22":6903,"50":6904,"TRA":6905,"creat":6906,"eous":6907,"rown":6908,"test":6909,"your":6910,"yield":6911,"Ġig":6912,"Ġible":6913,"Ġeduc":6914,"recogn":6915,"Ġep":6916,"ibilis":6917,"minis":6918,"ÃĦÅĤm":6919,"iversal":6920,"ilege":6921,"keep":6922,"TIVE":6923,"grat":6924,"extend":6925,"irdly":6926,"substant":6927,"remo":6928,"Em":6929,"FL":6930,"OSE":6931,"PRO":6932,"bring":6933,"fici":6934,"last":6935,"nis":6936,"spr":6937,"slet":6938,"Ġaut":6939,"intr":6940,"Ġoun":6941,"atir":6942,"Ġine":6943,"Ġmal":6944,"oud":6945,"Ġlar":6946,"ibus":6947,"Äłor":6948,"ĠIND":6949,"illa":6950,"amp":6951,"Ġved":6952,"prud":6953,"artes":6954,"too":6955,"soon":6956,"tellig":6957,"close":6958,"Ġard":6959,"Ġended":6960,"Ġ13":6961,"Ġceasing":6962,"bling":6963,"THER":6964,"profess":6965,"prevent":6966,"allel":6967,"ogram":6968,"71":6969,"APHY":6970,"ET":6971,"Respect":6972,"SIC":6973,"VIS":6974,"dut":6975,"ey":6976,"fund":6977,"favour":6978,"load":6979,"net":6980,"oe":6981,"oose":6982,"popular":6983,"tent":6984,"van":6985,"Ġied":6986,"ĠÄłÄł":6987,"Ġoc":6988,"itus":6989,"itory":6990,"itted":6991,"isk":6992,"encing":6993,"Ġpol":6994,"ctible":6995,"Ġise":6996,"Ġredistrib":6997,"osing":6998,"Äłthe":6999,"Äłfor":7000,"Äłob":7001,"version":7002,"quire":7003,"ogmat":7004,"resh":7005,"iful":7006,"ulous":7007,"ulsion":7008,"concre":7009,"dependent":7010,"Ġric":7011,"phiboly":7012,"Ġseld":7013,"precept":7014,"matic":7015,"Ġpresentation":7016,"roken":7017,"Ġsecurity":7018,"controver":7019,"mail":7020,"Ġpleases":7021,"Ġimagin":7022,"RECT":7023,"legitimate":7024,"Ġ45":7025,"volition":7026,"oinc":7027,"hypothetical":7028,"rupted":7029,"Ġprepared":7030,"error":7031,"?âĢĶ":7032,"At":7033,"Both":7034,"General":7035,"Nevertheless":7036,"Some":7037,"Small":7038,"See":7039,"_âĢĶ":7040,"acious":7041,"bation":7042,"between":7043,"certitude":7044,"dle":7045,"ees":7046,"ego":7047,"fil":7048,"field":7049,"founded":7050,"fuge":7051,"had":7052,"joined":7053,"lain":7054,"lable":7055,"little":7056,"lines":7057,"ltimate":7058,"making":7059,"ng":7060,"ries":7061,"sort":7062,"uc":7063,"uent":7064,"uum":7065,"void":7066,"varying":7067,"ware":7068,"ĠÂ":7069,"Ġute":7070,"Ġastr":7071,"inently":7072,"insufficient":7073,"Ġod":7074,"Ġtheore":7075,"receptivity":7076,"isive":7077,"enough":7078,"enable":7079,"erms":7080,"Ġwarn":7081,"Ġwicked":7082,"Ġcens":7083,"Ġction":7084,"Ġcertitude":7085,"Ġsl":7086,"Ġsw":7087,"Ġsaw":7088,"Ġsave":7089,"Ġsalt":7090,"Ġpubl":7091,"Ġparent":7092,"altogether":7093,"Ġinsp":7094,"Ġincor":7095,"Ġbenevolence":7096,"Ġmar":7097,"Ġmass":7098,"Ġtol":7099,"Ġfelt":7100,"anilla":7101,"Ġissu":7102,"Ġrefin":7103,"Ġreply":7104,"Ġrevel":7105,"Ġreferences":7106,"Ġrelease":7107,"Ġreserve":7108,"Ġdas":7109,"Ġdatum":7110,"entity":7111,"asions":7112,"Ġaspect":7113,"Ġanxi":7114,"Ġlow":7115,"Ġlime":7116,"Ġlays":7117,"Ġlogicians":7118,"Ġliability":7119,"Ġweaken":7120,"Ġweapons":7121,"irable":7122,"Ġgot":7123,"Ġwithdraw":7124,"third":7125,"Äłpl":7126,"ĠID":7127,"ĠIF":7128,"ĠIM":7129,"ĠIndeed":7130,"istered":7131,"Ġorigination":7132,"permitted":7133,"permanence":7134,"ulated":7135,"pping":7136,"Ġprohib":7137,"Ġprolong":7138,"changes":7139,"Ġdead":7140,"actually":7141,"actorily":7142,"hens":7143,"amples":7144,"Ġunite":7145,"Ġunits":7146,"Ġunavoid":7147,"Ġunsuccess":7148,"Ġuncertainty":7149,"Ġunpleasant":7150,"Ġunattainable":7151,"dependence":7152,"ansition":7153,"triangle":7154,"Ġspecul":7155,"Ġrig":7156,"Ġrare":7157,"Ġratiocin":7158,"Ġundertake":7159,"ĊĊĠĠĠĠ":7160,"Ġvision":7161,"Ġvisible":7162,"Ġdeterminability":7163,"Ġtruly":7164,"priate":7165,"primitive":7166,"ĠBE":7167,"ĠBRE":7168,"Ġheat":7169,"ading":7170,"Ġperpet":7171,"suasion":7172,"Ġregular":7173,"Ġregistered":7174,"antinomy":7175,"Ġselect":7176,"Ġcognitive":7177,"Ġstake":7178,"Ġstage":7179,"Ġquoad":7180,"Ġreluct":7181,"presents":7182,"ĠAgain":7183,"ĠAmong":7184,"Ġconsult":7185,"acities":7186,"Ġappell":7187,"Ġsubjection":7188,"ĠPsych":7189,"Ġdissatisfaction":7190,"),âĢĿ":7191,"Ġlevel":7192,"Ġprepar":7193,"Ġprecise":7194,"Ġprecision":7195,"Ġprerogative":7196,"teaches":7197,"Ġarms":7198,"Ġpartial":7199,"ĠSe":7200,"ĠScience":7201,"precisely":7202,"agogic":7203,"ĠNeither":7204,"Ġsubdiv":7205,"Ġsubdivision":7206,"ĠInstead":7207,"ĠWolf":7208,"Ġgroping":7209,"Ġcontrol":7210,"Ġcontradistinction":7211,"ĠCan":7212,"ĠCogn":7213,"formula":7214,"Ġcommerci":7215,"Ġowns":7216,"fects":7217,"ishments":7218,"ĠHA":7219,"derived":7220,"Ġfeet":7221,"Ġcategorically":7222,"Ġvalu":7223,"ĠEach":7224,"ĠRel":7225,"ĠRoyal":7226,"Ġyoung":7227,"Ġfinding":7228,"elling":7229,"objections":7230,"Ġprescribing":7231,"Ġexpense":7232,"Ġexpenses":7233,"reasons":7234,"Ġrealities":7235,"Ġrealizing":7236,"aved":7237,"avity":7238,"physics":7239,"Ġsimpl":7240,"Ġsimultaneous":7241,"ĠDetermin":7242,"ĠDonations":7243,"Ġsecuring":7244,"anging":7245,"Ġimpression":7246,"Ġthroughout":7247,"Ġviewing":7248,"Ġoriginates":7249,"therein":7250,"Ġinvent":7251,"Ġhereafter":7252,"Ġinfring":7253,"ĠMon":7254,"ĠMET":7255,"Ġstrikes":7256,"Ġapagogic":7257,"Ġanalyse":7258,"evidence":7259,"undetermined":7260,"ĠLaw":7261,"Ġcompares":7262,"Ġrespon":7263,"Ġconceit":7264,"Ġconcede":7265,"ĊĊĠĠĠĠĠĠĠĠĠĠĠĠĠĠĠĠĠĠĠ":7266,"Ġdeciding":7267,"Ġdecisive":7268,"ĠUSE":7269,"ĠUltimate":7270,"tenance":7271,"Ġsupplies":7272,"Ġnowhere":7273,"Ġtotally":7274,"Ġmathematicians":7275,"Ġmathematician":7276,"Ġclue":7277,"relatively":7278,"Ġsatisfying":7279,"Ġsuccessful":7280,"Ġdefines":7281,"Ġarrives":7282,"Ġestablishing":7283,"Ġderives":7284,"Ġlegality":7285,"Ġconsequent":7286,"Ġseeming":7287,"misunderstanding":7288,"Ġmodi":7289,"Ġmodification":7290,"Ġfinality":7291,"Ġcontingently":7292,"party":7293,"particip":7294,"Ġcorrespondence":7295,"Ġdemonstrating":7296,"Ġsignify":7297,"Ġsouls":7298,"Ġpostponed":7299,"granted":7300,"ĠSubject":7301,"completed":7302,"Ġconducts":7303,"Ġexplains":7304,"Ġmisconception":7305,"Ġmisunderstood":7306,"Ġhopes":7307,"Ġcept":7308,"Ġoblige":7309,"Ġprogressus":7310,"Ġgeneration":7311,"Ġremarked":7312,"ĊĊĠĠĠĠĠĠĠĠĠĠĠĠĠĠĠĠĠĠĠĠĠĠĠĠĠĠĠĠĠĠĠĠĠĠĠĠĠĠĠĠĠĠ":7313,"Ġdepending":7314,"Ġfallen":7315,"Ġaffirmations":7316,"discursive":7317,"Ġaddress":7318,"Ġharmonious":7319,"desires":7320,"giver":7321,"Ġfalsehood":7322,"happy":7323,"Ġdemanding":7324,"Ġdemanded":7325,"Ġnegatively":7326,"Ġteaching":7327,"Ġjustification":7328,"Ġjudges":7329,"Ġthoroughgoing":7330,"Ġpretension":7331,"Ġabsent":7332,"Ġparadox":7333,"Ġchooses":7334,"whereas":7335,"Ġstrictness":7336,"Ġleading":7337,"impressions":7338,"Ġtransitory":7339,"Ġdistinguishable":7340,"Ġprofit":7341,"Ġrequisites":7342,"Ġ35":7343,"Ġdesignation":7344,"Ġobservable":7345,"Ġsuppositions":7346,"Ġhelps":7347,"compared":7348,"Ġpursuing":7349,"Ġoccupy":7350,"properties":7351,"appearances":7352,"Ġrestricting":7353,"Ġrestrictive":7354,"ifices":7355,"Ġintroduces":7356,"Ġintroduced":7357,"produces":7358,"Ġappropri":7359,"III":7360,"Ġmanifests":7361,"Ġexactness":7362,"Ġchem":7363,"Ġlasting":7364,"Ġlastly":7365,"quantities":7366,"Ġarbitrarily":7367,"Ġsooner":7368,"constitutes":7369,"Ġfurnishes":7370,"ipse":7371,"rence":7372,"Ġoffender":7373,"Ġdispense":7374,"Ġfacil":7375,"Ġaccepting":7376,"Ġputting":7377,"presuppose":7378,"Ġsimilarity":7379,"picion":7380,"satisfied":7381,"interested":7382,"Ġtaut":7383,"demonstrated":7384,"Ġirrational":7385,"Ġdominion":7386,"provided":7387,"conceivable":7388,"Ġdownload":7389,"Ġconflicts":7390,"Ġomnis":7391,"ouncement":7392,"discoverable":7393,"Ġaccession":7394,"Ġfills":7395,"Ġarrangements":7396,"Ġlosing":7397,"investigations":7398,"Practical":7399,"Ġprevented":7400,"claims":7401,"Why":7402,"Ġdetach":7403,"Ġhumbles":7404,"proceeds":7405,"proceeding":7406,"Ġenlarged":7407,"Ġdiscussing":7408,"Ġdiscussed":7409,"motives":7410,"postulates":7411,"theoretically":7412,"Ġdiscerned":7413,"Ġbenefic":7414,"Ġcontributions":7415,"Ġsentence":7416,"Ġelevation":7417,"Ġcapacities":7418,"indicates":7419,"Ġgladly":7420,"Ġperforming":7421,"Ġantithetic":7422,"attempts":7423,"Ġearths":7424,"Ġnecessitation":7425,"Ġremoving":7426,"Ġcrime":7427,"Ġcrude":7428,"Ġestimation":7429,"legislative":7430,"Ġprofessed":7431,"feelings":7432,"Ġ60":7433,"assertion":7434,"Ġincreased":7435,"Ġexcite":7436,"obliged":7437,"Ġpromotive":7438,"problems":7439,"IRD":7440,"Ġspecification":7441,"Ġspecifically":7442,"passing":7443,"ĠEpicurean":7444,"ĠMoral":7445,"Ġsafely":7446,"conviction":7447,"Ġgradual":7448,"ĠNatural":7449,"requirements":7450,"Ġprotected":7451,"Ġconfirms":7452,"Ġsacred":7453,"Ġadduce":7454,"ĠDIVIS":7455,"Ġdeclaring":7456,"Ġdeclaration":7457,"Ġdeclarations":7458,"Ġmoderation":7459,"Ġfruitless":7460,"Ġdescending":7461,"Ġforbidden":7462,"ĊĊĠĠĠĠĠĠĠĠĠĠĠ":7463,"Ġprejudice":7464,"Ġprejudicial":7465,"Ġobviously":7466,"Ġcurrent":7467,"combination":7468,"combined":7469,"ĊĠĠĠĠĠĠĠĠĠĠĠĠĠĠĠĠĠĠĠĠĠĠĠĠĠĠĠĠĠĠĠ":7470,"Ġunceasingly":7471,"Ġchimera":7472,"ĠObjective":7473,"methods":7474,"Ġpenetration":7475,"Ġpenetrate":7476,"Ġrecommend":7477,"arbitrary":7478,"ĊĊĊĊĠĠĠĠĠĠĠĠĠĠĠĠĠĠĠĠĠĠĠĠĠĠ":7479,"ĠStoic":7480,"Ġnumerous":7481,"Ġhyperphysical":7482,"ANTITHESIS":7483,"obtained":7484,"reciprocal":7485,"Ġaccompanies":7486,"counter":7487,"Ġcenturies":7488,"Ġreveals":7489,"Ġdamages":7490,"Ġdiminish":7491,"Ġdiminished":7492,"Ġdepartment":7493,"Ġextremely":7494,"Ġexercises":7495,"Ġexercised":7496,"Ġteachers":7497,"ĠVIII":7498,"affected":7499,"demanded":7500,"noumena":7501,"noumenon":7502,"Ġzero":7503,"sophistical":7504,"Ġwaver":7505,"Ġcredit":7506,"Ġmutually":7507,"semble":7508,"Ġunbounded":7509,"Ġarchetyp":7510,"Ġarchetype":7511,"added":7512,"ulgence":7513,"Ġreconciled":7514,"Ġstruggle":7515,"Ġomnipotent":7516,"suspicion":7517,"Ġrevolution":7518,"Ġbeauty":7519,"Ġprinted":7520,"Ġrashly":7521,"ĠPossibility":7522,"Ġmachine":7523,"Ġinfallibly":7524,"Ġoverlooked":7525,"emonstrable":7526,"ACH":7527,"OREM":7528,"donate":7529,"Ġannexed":7530,"Ġ199":7531,"Ġsolicit":7532,"States":7533,"ymous":7534,"hausted":7535,"harmony":7536,"discussion":7537,"convinced":7538,"Ġbinding":7539,"Ġunfortunately":7540,"Ġchildren":7541,"ĠMORALS":7542,"becomes":7543,"Ġcontroversy":7544,"Ġaxis":7545,"Ġcatalog":7546,"Ġburden":7547,"Ġdispensed":7548,"Ġsubterfuge":7549,"Ġacquaintance":7550,"telligence":7551,"APHYSIC":7552,"duties":7553,"concreto":7554,"Ġseldom":7555,"Ġsaltus":7556,"Ġunavoidably":7557,"Ġunsuccessful":7558,"ĠBREACH":7559,"ĠMETAPHYSIC":7560,"ĠDIVISION":7561,"BL":7562,"NAL":7563,"bene":7564,"pun":7565,"Ġx":7566,"Ġight":7567,"Ġics":7568,"Ġty":7569,"Ġpot":7570,"ouch":7571,"Ġanc":7572,"ibr":7573,"Äłle":7574,"Äłem":7575,"Äłacc":7576,"artic":7577,"izable":7578,"avail":7579,"Ġstanding":7580,"circum":7581,"NT":7582,"PEND":7583,"ban":7584,"coinc":7585,"dict":7586,"fl":7587,"numer":7588,"pat":7589,"ta":7590,"Ġically":7591,"athemat":7592,"Ġward":7593,"Ġcrib":7594,"Ġpet":7595,"anqu":7596,"Äłent":7597,"Äłqu":7598,"Äłstr":7599,"Äłdes":7600,"Äłconf":7601,"ogistic":7602,"Ġort":7603,"iled":7604,"Ġsoci":7605,"allen":7606,"fort":7607,"ponder":7608,"ictions":7609,"intention":7610,"ÃĦÅĤd":7611,"Ġacted":7612,"medi":7613,"appoint":7614,"Ġio":7615,"knowled":7616,"doctr":7617,"Ġmiss":7618,"Äłdec":7619,"Ġology":7620,"ÄĬÄĬÄłÄłÄłÄłÄłÄłÄłÄłÄłÄłÄłÄłÄłÄłÄłÄł":7621,"HT":7622,"NI":7623,"Sy":7624,"UM":7625,"authoriz":7626,"cultiv":7627,"fr":7628,"fal":7629,"ration":7630,"sk":7631,"sent":7632,"ub":7633,"Ġious":7634,"reconci":7635,"Ġered":7636,"Ġities":7637,"ÄłU":7638,"Äłwe":7639,"Äłcomp":7640,"Ġexperienced":7641,"force":7642,"strum":7643,"Ġcontest":7644,"ÃĦÅĤp":7645,"ĠUND":7646,"distinct":7647,"requis":7648,"IND":7649,"xioms":7650,"exerc":7651,"signific":7652,"Philos":7653,"13":7654,"17":7655,"18":7656,"Al":7657,"Ca":7658,"EG":7659,"ITION":7660,"Mathemat":7661,"NITY":7662,"VI":7663,"bst":7664,"bour":7665,"bered":7666,"divers":7667,"eal":7668,"fill":7669,"lest":7670,"mem":7671,"mast":7672,"ngl":7673,"tow":7674,"tempt":7675,"uating":7676,"writ":7677,"Ġial":7678,"ones":7679,"itim":7680,"isy":7681,"Ġpt":7682,"oric":7683,"Ġflu":7684,"edistrib":7685,"sett":7686,"streng":7687,"llogistic":7688,"iver":7689,"uris":7690,"Äłam":7691,"Äłind":7692,"ander":7693,"perform":7694,"chief":7695,"abandon":7696,"Ġsensual":7697,"priv":7698,"adow":7699,"pirit":7700,"indifferent":7701,"Ġship":7702,"Ġartic":7703,"Ġending":7704,"undity":7705,"Ġattainable":7706,"miss":7707,"obsc":7708,"pses":7709,"happen":7710,"impul":7711,"conflict":7712,"Ġ40":7713,"Ġangle":7714,"Ġappeared":7715,"comparison":7716,"SITION":7717,"Ġconvenience":7718,"UDING":7719,"Ideal":7720,"TRIBUT":7721,"AD":7722,"Again":7723,"BS":7724,"BILITY":7725,"Happ":7726,"NOM":7727,"OF":7728,"OBS":7729,"VATIONS":7730,"aordin":7731,"bet":7732,"cr":7733,"danger":7734,"fut":7735,"function":7736,"fixed":7737,"horizon":7738,"ipt":7739,"iant":7740,"lie":7741,"lated":7742,"pel":7743,"parent":7744,"rain":7745,"run":7746,"smell":7747,"wit":7748,"Ġently":7749,"hetical":7750,"Ġaught":7751,"infer":7752,"Ġose":7753,"iss":7754,"Ġces":7755,"Ġcivil":7756,"Ġsem":7757,"Ġpair":7758,"Ġbes":7759,"Ġble":7760,"Ġthrown":7761,"orne":7762,"Ġmer":7763,"Ġmoun":7764,"cely":7765,"Ġfere":7766,"Ġec":7767,"Ġited":7768,"Ġdrop":7769,"imb":7770,"Äłres":7771,"ÄłIn":7772,"Ġory":7773,"plain":7774,"Ġrob":7775,"ĠBOOK":7776,"ades":7777,"orial":7778,"antom":7779,"ĠFUND":7780,"ĠAL":7781,"ourth":7782,"Ġadvers":7783,"orts":7784,"rade":7785,"TINOM":7786,"ignific":7787,"rowd":7788,"Ġult":7789,"Ġraising":7790,"critic":7791,"manifest":7792,"Ġsaf":7793,"Ġimitation":7794,"Ġanthropomorph":7795,"habit":7796,"CEPTION":7797,"ĠUNDER":7798,"toward":7799,"'t":7800,")(":7801,"):":7802,"--":7803,".âĢĶ":7804,"280":7805,"40":7806,"Act":7807,"Author":7808,"Besides":7809,"Critique":7810,"Foundation":7811,"Finally":7812,"GHT":7813,"Hume":7814,"IV":7815,"Is":7816,"Necessity":7817,"Plain":7818,"Time":7819,"VEN":7820,"YTIC":7821,"agement":7822,"aught":7823,"bra":7824,"business":7825,"ethics":7826,"fold":7827,"fits":7828,"gue":7829,"holy":7830,"iatus":7831,"lp":7832,"lication":7833,"license":7834,"lier":7835,"losing":7836,"mutable":7837,"pone":7838,"pite":7839,"pared":7840,"pdated":7841,"rs":7842,"sation":7843,"sciousness":7844,"scribe":7845,"tered":7846,"takes":7847,"taken":7848,"vention":7849,"xious":7850,"ĊĠĠ":7851,"Ġtone":7852,"Ġtemper":7853,"held":7854,"help":7855,"Ġak":7856,"once":7857,"onical":7858,"ining":7859,"inner":7860,"incapable":7861,"inferences":7862,"inconsistent":7863,"incomprehensible":7864,"Ġore":7865,"Ġomitted":7866,"itute":7867,"ithetic":7868,"isition":7869,"ateness":7870,"eral":7871,"erably":7872,"Ġwings":7873,"Ġwoe":7874,"Ġcut":7875,"Ġcard":7876,"Ġcustom":7877,"Ġculture":7878,"Ġsal":7879,"Ġsan":7880,"Ġsine":7881,"Ġsedu":7882,"Ġsmo":7883,"Ġsoft":7884,"Ġsaved":7885,"Ġpon":7886,"Ġpays":7887,"Ġpage":7888,"Ġpages":7889,"Ġportions":7890,"Ġpiece":7891,"alogy":7892,"almost":7893,"ica":7894,"Ġincap":7895,"Ġinsufficiency":7896,"Ġinhering":7897,"Ġincontest":7898,"Ġball":7899,"Ġbooks":7900,"Ġbaseless":7901,"Ġmil":7902,"Ġmixture":7903,"Ġmoments":7904,"Ġfed":7905,"Ġfire":7906,"Ġflat":7907,"anwhile":7908,"anuary":7909,"Ġecon":7910,"Ġelucid":7911,"Ġrever":7912,"Ġreception":7913,"Ġrevere":7914,"Ġrestraint":7915,"Ġresolution":7916,"Ġreverse":7917,"Ġdi":7918,"Ġdread":7919,"Ġdwell":7920,"Ġduring":7921,"Ġdoubted":7922,"Ġbeg":7923,"entitled":7924,"otion":7925,"arum":7926,"arles":7927,"arched":7928,"arcely":7929,"asus":7930,"utiful":7931,"Ġhit":7932,"Ġhollow":7933,"iven":7934,"Ġlat":7935,"Ġlive":7936,"Ġlof":7937,"Ġlives":7938,"Ġlooks":7939,"Ġlively":7940,"Ġloose":7941,"Ġlimb":7942,"Ġnote":7943,"Ġwealth":7944,"ceptive":7945,"terior":7946,"terms":7947,"Ġwithdrawn":7948,"uristic":7949,"Äłj":7950,"Äłel":7951,"Äłint":7952,"Äłover":7953,"Äłund":7954,"Äłgr":7955,"ciences":7956,"verted":7957,"quality":7958,"ecided":7959,"perity":7960,"ulating":7961,"ĠTHAT":7962,"ĠTerms":7963,"changed":7964,"ilt":7965,"ilty":7966,"Ġdeed":7967,"Ġdeceive":7968,"Ġalge":7969,"Ġalike":7970,"Ġintend":7971,"pleteness":7972,"acted":7973,"usality":7974,"usual":7975,"Ġhast":7976,"Ġhabits":7977,"illusions":7978,"illiant":7979,"aments":7980,"Ġunlaw":7981,"Ġunites":7982,"Ġuniting":7983,"Ġunconscious":7984,"Ġuninter":7985,"Ġunansw":7986,"Ġunobserved":7987,"Ġunmixed":7988,"Ġunvarying":7989,"ummum":7990,"umbling":7991,"Ġ(_":7992,"Ġthereon":7993,"Ġlawgiver":7994,"Ġspare":7995,"Ġcompos":7996,"Ġcomponent":7997,"notwithstanding":7998,"ofess":7999,"often":8000,"Ġrises":8001,"Ġrising":8002,"Ġrisk":8003,"estors":8004,"Ġmel":8005,"Ġundermin":8006,"Ġtroub":8007,"stands":8008,"ĠBel":8009,"ĠBUT":8010,"Ġimpract":8011,"Ġheuristic":8012,"ads":8013,"Ġpersist":8014,"posited":8015,"Ġks":8016,"Ġregulate":8017,"Ġshadow":8018,"ĠFUL":8019,"ĠFinally":8020,"Ġstability":8021,"Ġstopp":8022,"Ġquit":8023,"Ġquid":8024,"ordination":8025,"ĠAct":8026,"Ġconsent":8027,"acle":8028,"united":8029,"Ġappet":8030,"caution":8031,"Ġadhere":8032,"Ġye":8033,"ĠPG":8034,"ĠPers":8035,"ĠPost":8036,"Ġdisregard":8037,"strained":8038,"Ġleap":8039,"teaching":8040,"ĠThought":8041,"Ġargu":8042,"Ġcharact":8043,"Ġparte":8044,"Ġpartiality":8045,"ĠSc":8046,"ĠSen":8047,"ĠSee":8048,"elve":8049,"preted":8050,"precede":8051,"opyright":8052,"pposites":8053,"ĠOp":8054,"Ġsubmitted":8055,"Ġsubrept":8056,"possibly":8057,"Ġserious":8058,"Ġserving":8059,"Ġdiffers":8060,"Ġdiffered":8061,"ĠInternal":8062,"Ġplane":8063,"Ġplausible":8064,"Ġnothingness":8065,"ĠGos":8066,"reator":8067,"Ġgrate":8068,"Ġgross":8069,"coming":8070,"ĠCa":8071,"ĠCertain":8072,"ĠCosm":8073,"ĠCritical":8074,"Ġowing":8075,"proving":8076,"Ġdescribed":8077,"Ġdesirable":8078,"Ġemployees":8079,"Ġfirstly":8080,"Ġremed":8081,"Ġenabl":8082,"Ġbelonged":8083,"Ġago":8084,"Ġages":8085,"overty":8086,"ĠEngl":8087,"ĠEVEN":8088,"ĠRespect":8089,"ĠRedistrib":8090,"having":8091,"Ġtern":8092,"Ġoutset":8093,"Ġpossessions":8094,"earance":8095,"Ġamid":8096,"Ġamphiboly":8097,"Ġapplicability":8098,"Ġents":8099,"ouncing":8100,"Ġmatured":8101,"Ġattaching":8102,"ĠDO":8103,"ĠDate":8104,"ĠDuty":8105,"ĠDifference":8106,"ĠDogmat":8107,"assume":8108,"angles":8109,"Ġimpelled":8110,"thereto":8111,"Ġinviol":8112,"Ġhereby":8113,"disposed":8114,"dispute":8115,"Ġintelligibilis":8116,"Ġlikely":8117,"Ġhands":8118,"Ġresting":8119,"Ġrefuted":8120,"Ġrefutation":8121,"Ġdivisions":8122,"event":8123,"Ġproofread":8124,"ĠLIC":8125,"ĠLocke":8126,"Ġcompel":8127,"Ġcontradictorily":8128,"contradistinction":8129,"Ġassumptions":8130,"ERVATIONS":8131,"Ġconcludes":8132,"ĊĊĠĠĠĠĠĠĠĠĠĠĠĠĠĠĠĠĠĠĠĠĠĠĠ":8133,"Ġtruths":8134,"Ġ100":8135,"ĠUT":8136,"Ġconsisting":8137,"Ġcontented":8138,"Intelligence":8139,"Ġconfound":8140,"Ġconfirmed":8141,"Ġconfounded":8142,"represented":8143,"Ġmathematically":8144,"Ġdiscovers":8145,"Ġmotions":8146,"subordinated":8147,"Ġaffair":8148,"Ġconceptus":8149,"relates":8150,"lements":8151,"Ġsatisfactorily":8152,"Ġindul":8153,"Ġindivid":8154,"Ġindemonstrable":8155,"ENSE":8156,"Ġstandpoint":8157,"Ġarrogant":8158,"Ġlegally":8159,"Ġimages":8160,"Ġesse":8161,"Ġneeded":8162,"Ġneedless":8163,"Ġguess":8164,"Ġguides":8165,"Ġguided":8166,"Ġguiding":8167,"Ġantiqu":8168,"Ġscarcely":8169,"Ġnegativum":8170,"partly":8171,"subjected":8172,"Ġinvestigated":8173,"Ġinvestigating":8174,"Ġasserts":8175,"Ġassertor":8176,"Ġasserting":8177,"Ġassertorical":8178,"oval":8179,"ĠTHIRD":8180,"TERNAL":8181,"morally":8182,"Ġattributing":8183,"Ġcoal":8184,"ĠSuppose":8185,"completion":8186,"Ġhero":8187,"Ġprevents":8188,"Ġdistinctions":8189,"Ġmisled":8190,"Ġmisconceptions":8191,"Ġpassages":8192,"Ġdeductions":8193,"Ġmaterialism":8194,"Ġceases":8195,"Ġaffection":8196,"Ġvariance":8197,"Ġfalling":8198,"ĠTHEOREM":8199,"Ġfals":8200,"ontological":8201,"Ġadding":8202,"Ġagreed":8203,"Ġunden":8204,"ĠYet":8205,"Ġcircular":8206,"Ġspecious":8207,"Ġintellect":8208,"Ġbrain":8209,"Ġbranc":8210,"Ġbrilliant":8211,"everyone":8212,"morals":8213,"Ġvolunt":8214,"Ġadvantageous":8215,"prescribes":8216,"indefinitum":8217,"Ġparallel":8218,"whereby":8219,"Äłsur":8220,"Ġauthors":8221,"community":8222,"Ġcontinues":8223,"Ġcontinuum":8224,"Ġantecede":8225,"Ġcomparatively":8226,"ĠUnless":8227,"ĠUniversal":8228,"justify":8229,"believe":8230,"ĊĠĠĠĠĠĠĠ":8231,"Ġtransfer":8232,"Ġtransformed":8233,"ĠExcept":8234,"ruption":8235,"Ġinscr":8236,"Ġprofits":8237,"Ġcombine":8238,"Ġexclusion":8239,"Ġdogmatically":8240,"Ġdesigns":8241,"Ġtranscendentally":8242,"Ġevils":8243,"INTRODUCTION":8244,"Ġcomprehension":8245,"Ġblamed":8246,"Ġbliss":8247,"Ġ568":8248,"ighbour":8249,"Ġsurvey":8250,"ĠArgum":8251,"Ġrestricts":8252,"ificent":8253,"Ġappropriate":8254,"ĠVanilla":8255,"confess":8256,"Ġearlier":8257,"employing":8258,"ĠJanuary":8259,"THING":8260,"containing":8261,"Ġseparation":8262,"Ġtests":8263,"Ġcareful":8264,"Ġdesert":8265,"Ġconcrete":8266,"insically":8267,"divisibility":8268,"possession":8269,"Ġhypothetically":8270,"Ġacquisition":8271,"faculties":8272,"Ġputs":8273,"ĊĊĊĊĠ":8274,"ĊĊĊĊĠĠĠĠĠĠĠĠ":8275,"Ġadopting":8276,"thinks":8277,"ĊĠĠĠĠĠĠĠĠĠĠĠ":8278,"ĠpropÃ¦deutic":8279,"analyse":8280,"conformable":8281,"conformably":8282,"Ġhappening":8283,"Ġdestroyed":8284,"Ġreaching":8285,"kinds":8286,"demonstrative":8287,"Ġconvert":8288,"Ġconversion":8289,"Ġsubtlety":8290,"judge":8291,"sensations":8292,"province":8293,"characteristic":8294,"characteristics":8295,"Ġcollected":8296,"Ġannihilates":8297,"Ġlaying":8298,"ĠANTINOM":8299,"contentment":8300,"enetrable":8301,"Ġimplanted":8302,"Ġindispensably":8303,"Ġdefault":8304,"Ġadmire":8305,"lightened":8306,"Supposing":8307,"Ġmajesty":8308,"Ġfanci":8309,"Ġplainly":8310,"subsisting":8311,"continue":8312,"continuous":8313,"Ġopened":8314,"Ġassigns":8315,"Ġabsurdity":8316,"Ġplanets":8317,"particularly":8318,"Ġinduction":8319,"Ġinduced":8320,"Ġreceipt":8321,"Ġdiscernment":8322,"Ġborrowing":8323,"Ġelevating":8324,"Ġsucceeding":8325,"Ġmistake":8326,"Ġperformed":8327,"Ġapparently":8328,"Only":8329,"afterwards":8330,"Ġnecessitate":8331,"Ġsubsume":8332,"Ġremoves":8333,"Ġfitted":8334,"Ġfitting":8335,"Ġcry":8336,"Ġaggregation":8337,"Ġproportioned":8338,"Ġreflecting":8339,"proofs":8340,"Ġpopularity":8341,"Ġrenunciation":8342,"Ġrepay":8343,"Ġsignal":8344,"Ġreturns":8345,"Ġanimals":8346,"Ġexcused":8347,"Ġentering":8348,"pretation":8349,"Ġcalm":8350,"Ġprosperity":8351,"Ġextravag":8352,"Ġextraordin":8353,"Ġpersuaded":8354,"Ġpersuade":8355,"ĠCharles":8356,"ĠEmpty":8357,"Ġschematism":8358,"defined":8359,"influenced":8360,"Ġtwelve":8361,"Ġwondered":8362,"Ġbuilt":8363,"Ġsuggested":8364,"transgress":8365,"ĠMorals":8366,"Ġhonesty":8367,"Ġhonestly":8368,"Ġordains":8369,"Ġordinary":8370,"scepticism":8371,"Ġdoctrinal":8372,"Ġsubsisting":8373,"Ġsubsistence":8374,"Ġillustration":8375,"Ġillustrate":8376,"Ġsecretly":8377,"Ġconfession":8378,"deduce":8379,"commonest":8380,"Ġprotect":8381,"ĠWho":8382,"ĠWhatever":8383,"Ġanticipation":8384,"Ġcontemplated":8385,"Ġcomplaint":8386,"ĠInterest":8387,"Ġpathologically":8388,"restriction":8389,"restricted":8390,"sufficiently":8391,"anthropology":8392,"Ġcommunicated":8393,"ĊĊĊĊĠĠĠĠĠĠĠĠĠĠĠĠĠĠĠĠĠĠ":8394,"Ġabandons":8395,"ĠCONFL":8396,"Ġsupplying":8397,"Ġperiods":8398,"Ġperiodic":8399,"AMENTAL":8400,"assumed":8401,"assumption":8402,"maintained":8403,"absence":8404,"Ġdictate":8405,"Ġdictates":8406,"Ġchimeras":8407,"Ġchimerical":8408,"ĠMetaphysical":8409,"commanded":8410,"Ġmonth":8411,"intuite":8412,"clearness":8413,"coexistence":8414,"ÃĦÅĤÃĦÅĤÃĦÅĤÃĦÅĤÃĦÅĤÃĦÅĤÃĦÅĤÃĦÅĤÃĦÅĤÃĦÅĤÃĦÅĤÃĦÅĤÃĦÅĤÃĦÅĤÃĦÅĤÃĦÅĤ":8415,"Ġarchitectonical":8416,"Ġfulfilment":8417,"Ġclearer":8418,"Ġresolve":8419,"Ġresolved":8420,"Ġrecommended":8421,"Ġdry":8422,"Ġhardly":8423,"Ġundertaken":8424,"Ġformats":8425,"Ġdisclaimer":8426,"Ġdisclaimers":8427,"Ġgranting":8428,"Ġambiguous":8429,"Ġnumerical":8430,"ĠIdealism":8431,"Ġcalculate":8432,"Ġcalculated":8433,"Ġhypertext":8434,"anticipation":8435,"reciprocally":8436,"Ġproprietary":8437,"Ġembraces":8438,"copyright":8439,"Ġreveal":8440,"Ġpraised":8441,"ĠTransition":8442,"ĠCompleteness":8443,"Ġparalogisms":8444,"Ġdestructive":8445,"Ġmagnanim":8446,"Ġmagnificent":8447,"Ġwarnings":8448,"various":8449,"Ġanthropology":8450,"smallest":8451,"words":8452,"Ġcredential":8453,"Ġinherent":8454,"Ġinstitute":8455,"Ġinstituted":8456,"Ġthreaten":8457,"Ġmutual":8458,"Ġfooting":8459,"Ġsusceptibility":8460,"Ġunbroken":8461,"Ġhearing":8462,"ĠApplication":8463,"ĠAppearance":8464,"Ġimperfection":8465,"ĠProblem":8466,"ĠProblems":8467,"Ġobstinate":8468,"Ġobstinately":8469,"Ġhypostatizing":8470,"CLUDING":8471,"circle":8472,"ĠSTART":8473,"syllogisms":8474,"Ġhesitate":8475,"Ġselfishness":8476,"Ġomnipotence":8477,"Ġmiddle":8478,"Ġbeautiful":8479,"Ġroyalty":8480,"Ġroyalties":8481,"Ġvisit":8482,"Ġsharp":8483,"ĠPossible":8484,"Ġgrowth":8485,"Ġenumeration":8486,"Ġinfallible":8487,"Ġcompensate":8488,"Ġguaranteed":8489,"Ġpoison":8490,"Ġcourage":8491,"Ġlurks":8492,"Ġsuitably":8493,"Ġunfair":8494,"Ġvacant":8495,"inevitable":8496,"Ġinvalidity":8497,"Ġelaboration":8498,"Ġcoincide":8499,"Ġharmless":8500,"ocrisy":8501,"Ġconjoining":8502,"Ġcombatants":8503,"ĠANALYTIC":8504,"ĠMathematical":8505,"ĠMathematics":8506,"Ġpattern":8507,"annihilated":8508,"Ġostensive":8509,"Ġparticipation":8510,"ĠConclusions":8511,"Ġfairly":8512,"Ġindubitable":8513,"Ġlaborious":8514,"ĠDISTRIBUT":8515,"Ġimpediments":8516,"Ġdeliberate":8517,"specification":8518,"Ġridiculous":8519,"assigned":8520,"accurate":8521,"accompanied":8522,"Archive":8523,"spontaneity":8524,"Nothing":8525,"heteronomy":8526,"reckoned":8527,"speaking":8528,"Produced":8529,"declaring":8530,"efforts":8531,"referred":8532,"Ġfiles":8533,"Ġrestrain":8534,"ĠGround":8535,"Ġboni":8536,"Ġpragmatical":8537,"Ġexaggerated":8538,"ĠIllusory":8539,"Ġvictory":8540,"Ġvague":8541,"Ġsynonymous":8542,"Ġstepping":8543,"ĠAGREE":8544,"Ġmaster":8545,"ĠIntroductory":8546,"ignorance":8547,"appeared":8548,"Ġsurprising":8549,"Ġfigurative":8550,"Ġstructure":8551,"Ġastonishment":8552,"Ġdenominate":8553,"Ġdeceitful":8554,"ducive":8555,"Principle":8556,"Empirical":8557,"spring":8558,"sletter":8559,"intrinsic":8560,"atirae":8561,"prudence":8562,"Ġissue":8563,"Ġanxiety":8564,"ĠIDEAS":8565,"Ġprohibition":8566,"Ġappellation":8567,"ĠPsychology":8568,"ĠHAVE":8569,"ĠRelation":8570,"ĠRoyalty":8571,"ĠMonad":8572,"Ġomniscient":8573,"Ġcatalogue":8574,"Ġancestors":8575,"Happiness":8576,"OBSERVATIONS":8577,"better":8578,"future":8579,"ĠFUNDAMENTAL":8580,"Ġsafety":8581,"Ġfederal":8582,"Ġreverence":8583,"Ġalgebra":8584,"Ġunlawful":8585,"Ġcompositum":8586,"ĠBelief":8587,"ĠFULL":8588,"Ġcharacters":8589,"Ġenabling":8590,"ĠDogmatism":8591,"ĠLICENSE":8592,"Ġbranches":8593,"Ġinscrutable":8594,"ĠANTINOMY":8595,"Ġextraordinary":8596,"ĠCONFLICT":8597,"Ġmagnanimous":8598,"cur":8599,"eg":8600,"Ġution":8601,"Ġice":8602,"Ġize":8603,"Ġives":8604,"Ġau":8605,"Ġite":8606,"Äłer":8607,"hentic":8608,"Ġving":8609,"Ġlear":8610,"princip":8611,"Ġia":8612,"Äłinv":8613,"ilarly":8614,"cret":8615,"Concl":8616,"568":8617,"Ch":8618,"IX":8619,"OP":8620,"nic":8621,"xt":8622,"ĠÄ":8623,"Ġict":8624,"onom":8625,"Ġther":8626,"esis":8627,"Ġbar":8628,"Ġists":8629,"thetic":8630,"Äłrel":8631,"Ġproc":8632,"cast":8633,"ÃĦÅĤde":8634,"Äłco":8635,"architect":8636,"veloped":8637,"ÃĥÄ¦ÃħÄ¤ÃĥÄ¦ÃħÄ¤ÃĥÄ¦ÃħÄ¤ÃĥÄ¦ÃħÄ¤ÃĥÄ¦ÃħÄ¤ÃĥÄ¦ÃħÄ¤ÃĥÄ¦ÃħÄ¤ÃĥÄ¦ÃħÄ¤":8638,"20":8639,"622":8640,"Cont":8641,"IVE":8642,"bre":8643,"carr":8644,"fail":8645,"ho":8646,"hum":8647,"lab":8648,"oh":8649,"vi":8650,"Ġib":8651,"Ġire":8652,"Ġized":8653,"het":8654,"Ġae":8655,"ann":8656,"asc":8657,"Ġue":8658,"Ġual":8659,"Ġust":8660,"impl":8661,"Ġles":8662,"ithmet":8663,"Äły":8664,"Äłir":8665,"Äłant":8666,"Äłext":8667,"Äłpres":8668,"Äłcomm":8669,"Äłappro":8670,"emin":8671,"chimer":8672,"endi":8673,"hensibility":8674,"illustr":8675,"depr":8676,"prot":8677,"pros":8678,"suggest":8679,"ungl":8680,"prohib":8681,"ĠED":8682,"sensual":8683,"Ġcorrupt":8684,"ocal":8685,"Äłinf":8686,"hapsod":8687,"Äłref":8688,"attack":8689,"iberum":8690,"inevit":8691,"hensions":8692,"19":8693,"55":8694,"75":8695,"AIM":8696,"DENTAL":8697,"DED":8698,"Epic":8699,"LE":8700,"Mor":8701,"Sto":8702,"URE":8703,"az":8704,"cal":8705,"cert":8706,"dest":8707,"ew":8708,"eas":8709,"elev":8710,"fa":8711,"fam":8712,"kal":8713,"lo":8714,"mer":8715,"penetr":8716,"sid":8717,"touch":8718,"uously":8719,"wis":8720,"wart":8721,"warrant":8722,"Ġ#":8723,"Ġ$":8724,"ino":8725,"instruct":8726,"enumer":8727,"alter":8728,"Ġination":8729,"estr":8730,"Ġthrow":8731,"Ġere":8732,"omat":8733,"llous":8734,"ivae":8735,"osity":8736,"Ġances":8737,"Ġland":8738,"ider":8739,"thy":8740,"threat":8741,"Äłur":8742,"Äłus":8743,"Äłapp":8744,"ĠIX":8745,"embarrass":8746,"conject":8747,"confin":8748,"conven":8749,"ilia":8750,"Ġcoming":8751,"Ġrap":8752,"estic":8753,"prim":8754,"mental":8755,"specul":8756,"bell":8757,"ÃĦÅĤb":8758,"ÃĦÅĤcon":8759,"ÃĦÅĤex":8760,"service":8761,"propri":8762,"ĠER":8763,"Ġinterested":8764,"ERAL":8765,"ERCHA":8766,"Ġress":8767,"Ġresist":8768,"Ġ16":8769,"contempt":8770,"product":8771,"myst":8772,"Ġological":8773,"opernic":8774,"PLEAS":8775,"iliary":8776,"Ġ80":8777,"seek":8778,"SIBILITY":8779,"ancendent":8780,"schol":8781,"controvert":8782,"circumst":8783,"PENDIX":8784,"banks":8785,"62215":8786,"10":8787,"45":8788,"Among":8789,"First":8790,"Fourth":8791,"GENCE":8792,"NES":8793,"POSE":8794,"SS":8795,"WARRAN":8796,"Wolf":8797,"custom":8798,"dden":8799,"fast":8800,"firm":8801,"fault":8802,"gust":8803,"hort":8804,"high":8805,"hip":8806,"join":8807,"mother":8808,"nify":8809,"pus":8810,"sure":8811,"sipp":8812,"tes":8813,"Ġ'":8814,"Ġ+":8815,"Ġting":8816,"Ġtain":8817,"heit":8818,"Ġace":8819,"Ġapt":8820,"Ġadequ":8821,"Ġome":8822,"rew":8823,"atch":8824,"erke":8825,"Ġwarrant":8826,"Ġcame":8827,"Ġbow":8828,"Ġborne":8829,"Ġfund":8830,"anch":8831,"animal":8832,"Ġistic":8833,"leology":8834,"Ġret":8835,"omni":8836,"otyp":8837,"aralogism":8838,"asm":8839,"ascertain":8840,"imid":8841,"image":8842,"Ġld":8843,"Äłunder":8844,"sibilities":8845,"constant":8846,"abilis":8847,"iest":8848,"trace":8849,"off":8850,"ousand":8851,"adem":8852,"adapt":8853,"Ġsyllogistic":8854,"phold":8855,"ometer":8856,"acent":8857,"Ġlect":8858,"teen":8859,"spread":8860,"sissipp":8861,"prefer":8862,"aging":8863,"Ġthank":8864,"ÃĦÅĤh":8865,"meant":8866,"ĠCHA":8867,"weight":8868,"Ġhappily":8869,"lessed":8870,"uteness":8871,"Ġapper":8872,"undoubted":8873,"contrib":8874,"structive":8875,"ENTI":8876,"arrangement":8877,"ALITY":8878,"obvious":8879,"grant":8880,"Ġ22":8881,"iae":8882,"indefinite":8883,"commerci":8884,"belie":8885,"aska":8886,"iumph":8887,"invent":8888,"Ġagreeable":8889,"Ġagreeableness":8890,"Ġpositions":8891,"ĠÃ¢Ä¢Ä":8892,"superfluous":8893,"consequentia":8894,"junct":8895,"SEQU":8896,"Ġidle":8897,"CTRIN":8898,"colour":8899,"Ġinstructed":8900,"CLAIM":8901,"reptitious":8902,"ÃĦÄ¬ÃĦÄ¬":8903,"guarded":8904,"urbed":8905,"false":8906,"ERCHANT":8907,"!)":8908,"\".":8909,"*]":8910,".:":8911,".;":8912,"11":8913,"178":8914,"39":8915,"57":8916,"79":8917,"After":8918,"Books":8919,"EBook":8920,"Further":8921,"FIRST":8922,"FORE":8923,"IED":8924,"IRECT":8925,"Literary":8926,"License":8927,"Language":8928,"LIMITED":8929,"Most":8930,"Moreover":8931,"PPENDIX":8932,"Right":8933,"Rational":8934,"Remark":8935,"RICT":8936,"RPOSE":8937,"Title":8938,"Very":8939,"aple":8940,"apart":8941,"aired":8942,"acies":8943,"bly":8944,"ches":8945,"culture":8946,"cartes":8947,"dash":8948,"dignity":8949,"ease":8950,"eBook":8951,"eBooks":8952,"failed":8953,"iological":8954,"ipses":8955,"iosity":8956,"land":8957,"mas":8958,"mise":8959,"mber":8960,"mdash":8961,"oke":8962,"opposed":8963,"pire":8964,"putation":8965,"ror":8966,"rought":8967,"ried":8968,"sakes":8969,"taking":8970,"txt":8971,"uation":8972,"uated":8973,"vity":8974,"vive":8975,"vain":8976,"verest":8977,"wishes":8978,"xiliary":8979,"yle":8980,"zip":8981,"ĠÄł":8982,"Ġvel":8983,"Ġtant":8984,"Ġtear":8985,"Ġtempt":8986,"iny":8987,"inference":8988,"information":8989,"instruction":8990,"ineness":8991,"Ġopposing":8992,"Ġopposites":8993,"Ġtheolog":8994,"rendered":8995,"recognized":8996,"reverse":8997,"reproductive":8998,"itatis":8999,"iteness":9000,"Ġoffered":9001,"atible":9002,"atically":9003,"atae":9004,"erion":9005,"erce":9006,"ervice":9007,"Ġwont":9008,"Ġwander":9009,"Ġcand":9010,"Ġcold":9011,"Ġcurs":9012,"Ġcush":9013,"Ġcitiz":9014,"Ġsis":9015,"Ġsag":9016,"Ġsending":9017,"Ġsorrow":9018,"Ġsmell":9019,"Ġpoverty":9020,"along":9021,"alogical":9022,"icited":9023,"Ġincompre":9024,"Ġincorrect":9025,"Ġinjustice":9026,"Ġindiscern":9027,"Ġinsecure":9028,"Ġinstrum":9029,"Ġinaccurate":9030,"Ġincontrovert":9031,"esthetic":9032,"Ġbro":9033,"Ġbinary":9034,"Ġthir":9035,"Ġthread":9036,"Ġthwart":9037,"orous":9038,"Ġming":9039,"Ġmove":9040,"Ġmock":9041,"Ġmillion":9042,"cease":9043,"cember":9044,"Ġfer":9045,"Ġfing":9046,"Ġfam":9047,"Ġfant":9048,"Ġfaint":9049,"Ġfavoured":9050,"Ġfresh":9051,"analogy":9052,"edifice":9053,"editions":9054,"edient":9055,"Ġnom":9056,"Ġnought":9057,"Ġnames":9058,"Ġnaught":9059,"Ġecl":9060,"Ġeleg":9061,"Ġearn":9062,"Ġepo":9063,"outh":9064,"Ġised":9065,"Ġished":9066,"ley":9067,"leave":9068,"Ġrecognition":9069,"Ġrepress":9070,"Ġreaches":9071,"Ġremind":9072,"Ġresearch":9073,"Ġresemble":9074,"Ġdouble":9075,"Ġbeha":9076,"stition":9077,"sthetical":9078,"entions":9079,"Ġwhit":9080,"otes":9081,"utor":9082,"utum":9083,"utious":9084,"Ġhour":9085,"Ġhint":9086,"Ġhiatus":9087,"Ġprince":9088,"Ġasks":9089,"Ġascribing":9090,"thew":9091,"theory":9092,"theologia":9093,"ivocal":9094,"imony":9095,"imilarly":9096,"Ġexhausted":9097,"Ġong":9098,"Ġliqu":9099,"Ġlangu":9100,"Ġlament":9101,"Ġlikes":9102,"Ġliking":9103,"Ġwear":9104,"Ġforget":9105,"idge":9106,"idently":9107,"Ġsuppos":9108,"Ġsuits":9109,"Ġsudden":9110,"irus":9111,"Ġger":9112,"Ġgene":9113,"urance":9114,"Äłon":9115,"Äłag":9116,"Äłev":9117,"ÄłCon":9118,"ĠIR":9119,"quid":9120,"ivered":9121,"resistance":9122,"isturbed":9123,"emarks":9124,"embered":9125,"emnify":9126,"Ġproject":9127,"Ġreasoners":9128,"ĠTRAN":9129,"Ġobjected":9130,"connexion":9131,"vellous":9132,"choice":9133,"endeavoured":9134,"iliar":9135,"Ġdear":9136,"Ġdeist":9137,"Ġdeposit":9138,"Ġdeceptive":9139,"Ġaltered":9140,"Ġalkal":9141,"Ġintentions":9142,"pleases":9143,"acts":9144,"actly":9145,"therwise":9146,"usio":9147,"illusory":9148,"aware":9149,"aming":9150,"amount":9151,"plan":9152,"Ġunsol":9153,"Ġunquestion":9154,"Ġunconnected":9155,"Ġunimportant":9156,"Ġunanim":9157,"Ġunsatisfactory":9158,"âĢĶ(":9159,"olunteers":9160,"ighed":9161,"igious":9162,"ĠĠĠĠĠĠĠĠĠĠ":9163,"ĠĠĠĠĠĠĠĠĠĠĠĠĠ":9164,"Ġthereupon":9165,"Ġlawless":9166,"tries":9167,"tricable":9168,"Ġspent":9169,"Ġspheres":9170,"Ġsprun":9171,"Ġcomfort":9172,"ested":9173,"Ġpossibilities":9174,"Ġempiric":9175,"Ġembell":9176,"Ġsoar":9177,"ideality":9178,"ĊĊĠĠĠ":9179,"Ġvulg":9180,"Ġvicious":9181,"Ġvocation":9182,"Ġvirus":9183,"Ġtrave":9184,"Ġtraining":9185,"Ġtrades":9186,"Ġtriumph":9187,"Ġwilled":9188,"odes":9189,"odality":9190,"ĠTheology":9191,"ĠTheoretical":9192,"ĠBec":9193,"ĠBonum":9194,"ĠBetween":9195,"Ġimposing":9196,"Ġimmedi":9197,"Ġimmutable":9198,"Ġhearer":9199,"Ġabut":9200,"Ġabode":9201,"ounds":9202,"Ġpertaining":9203,"allowed":9204,"Ġnovel":9205,"Ġnobody":9206,"supposes":9207,"Ġregulating":9208,"Ġusage":9209,"antity":9210,"phaenomenon":9211,"Ġshalt":9212,"ĠFac":9213,"ĠFRO":9214,"ĠFIT":9215,"ĠFOU":9216,"Ġsearched":9217,"Ġcognizes":9218,"Ġstay":9219,"Ġstaff":9220,"Ġstream":9221,"Ġstumbling":9222,"Ġstyle":9223,"Ġquick":9224,"Ġreligious":9225,"presenting":9226,"why":9227,"whom":9228,"ĠAd":9229,"ĠAutonomy":9230,"ĠAug":9231,"ĠAxioms":9232,"ĠAesthetic":9233,"Ġconscience":9234,"nowhere":9235,"acquire":9236,"Ġjuris":9237,"Ġaccus":9238,"union":9239,"unattainable":9240,"Ġappend":9241,"forces":9242,"ĠForm":9243,"ĠPre":9244,"ĠPref":9245,"ĠPART":9246,"ĠParalogism":9247,"Ġdisk":9248,"Ġdiss":9249,"Ġdispar":9250,"Ġdisposed":9251,"Ġdispleasure":9252,"Ġdissect":9253,"Ġdissection":9254,"Ġdisinterested":9255,"Ġdisappoint":9256,"Ġdisgust":9257,"etc":9258,"etic":9259,"etition":9260,"eties":9261,"etext":9262,"teleological":9263,"ĠThose":9264,"ĠThrough":9265,"Ġarm":9266,"Ġargue":9267,"Ġcharm":9268,"Ġchallen":9269,"Ġpartially":9270,"Ġsomeone":9271,"Ġmoralists":9272,"ternational":9273,"ĠSh":9274,"ĠSoul":9275,"ĠSUC":9276,"ĠSpecial":9277,"ĠSecondly":9278,"ĠSummum":9279,"ĠSatirae":9280,"ĠService":9281,"ĠSouth":9282,"Ġphantom":9283,"eless":9284,"solve":9285,"ensed":9286,"Ġwhoever":9287,"opinions":9288,"ĠNecessity":9289,"ĠNEG":9290,"ĠOTHER":9291,"intensive":9292,"intended":9293,"Ġsubmission":9294,"Ġsubspecies":9295,"Ġsubordination":9296,"imitation":9297,"Ġfreed":9298,"Ġnearest":9299,"Ġneighbour":9300,"ĠInte":9301,"ĠInfinite":9302,"ĠInasmuch":9303,"Ġplans":9304,"Ġcausa":9305,"orted":9306,"Ġcontents":9307,"ĠGre":9308,"ĠGIVE":9309,"reating":9310,"ĠWis":9311,"ĠWest":9312,"ĠWhence":9313,"ĠWHAT":9314,"ÃĦÅĤl":9315,"ÃĦÅĤt":9316,"Ġgrown":9317,"Ġgravity":9318,"comes":9319,"They":9320,"ĠCl":9321,"ĠCause":9322,"ĠCopyright":9323,"ĠCreator":9324,"ĠCopernic":9325,"formulae":9326,"Ġposed":9327,"Ġpositing":9328,"Ġobl":9329,"projected":9330,"Ġfounds":9331,"Ġcommitted":9332,"Ġdiscret":9333,"Ġremoval":9334,"ĠHist":9335,"ĠHypothe":9336,"Ġsystematically":9337,"Ġactuality":9338,"weapons":9339,"Ġenv":9340,"Ġenig":9341,"Ġenounced":9342,"Ġenclose":9343,"Ġenjoined":9344,"Ġextinct":9345,"Ġagents":9346,"ĠEv":9347,"ĠEIN":9348,"ĠEBook":9349,"ĠEthics":9350,"ĠElements":9351,"ĠRemark":9352,"ĠRemarks":9353,"stitution":9354,"Ġeffecting":9355,"Ġeffective":9356,"Ġtert":9357,"Ġthinkable":9358,"Ġoutline":9359,"Ġoutlines":9360,"Ġsensibilis":9361,"reasoning":9362,"early":9363,"Ġassures":9364,"Ġassuring":9365,"Ġassurance":9366,"Ġenters":9367,"Ġentium":9368,"Ġentrust":9369,"physiology":9370,"ĠDr":9371,"Ġgreatness":9372,"Ġbasing":9373,"Ġfacta":9374,"Ġfacto":9375,"Ġfacts":9376,"Ġsecures":9377,"angled":9378,"ribe":9379,"Ġinclined":9380,"Ġimpot":9381,"Ġimputation":9382,"Ġimpenetrability":9383,"Ġshallow":9384,"Ġoriginator":9385,"Thou":9386,"Those":9387,"Thirdly":9388,"Ġcorrection":9389,"Ġcorruption":9390,"Ġinvention":9391,"discipline":9392,"Ġinflex":9393,"Ġexplore":9394,"Ġpowerless":9395,"Ġintelligibility":9396,"ĠMay":9397,"ĠMany":9398,"ĠMotion":9399,"ĠMERCHANT":9400,"experienced":9401,"ĠReality":9402,"ĠReplace":9403,"ĠRepresentation":9404,"ĠRefund":9405,"Ġwherefore":9406,"Ġcharacterized":9407,"Ġcharacterizes":9408,"raid":9409,"raise":9410,"raising":9411,"Ġrested":9412,"Ġanalyst":9413,"Ġrefuses":9414,"Ġsummon":9415,"ĠLat":9416,"Ġcompounded":9417,"Ġadvice":9418,"Ġresides":9419,"Ġconceives":9420,"Ġconclusive":9421,"ĊĊĠĠĠĠĠĠĠĠĠĠĠĠĠĠĠĠĠĠĠĠĠĠĠĠĠĠ":9422,"Ġ17":9423,"Ġ18":9424,"Ġdecre":9425,"Ġsincere":9426,"ĠUnder":9427,"ĠUpon":9428,"Ġmetal":9429,"Ġillum":9430,"learned":9431,"Ġsupplement":9432,"Ġconsistently":9433,"Information":9434,"Instead":9435,"International":9436,"Ġaimed":9437,"represents":9438,"representing":9439,"subtle":9440,"substratum":9441,"Ġ[*]":9442,"related":9443,"religion":9444,"ĠConsciousness":9445,"redit":9446,"ĠOne":9447,"ĠOnt":9448,"Ġindulgence":9449,"Ġindestr":9450,"Ġindemnify":9451,"Ġdegr":9452,"naturally":9453,"natura":9454,"Ġplea":9455,"Ġpleasing":9456,"ENERAL":9457,"Ġsuccessfully":9458,"Ġdefining":9459,"Ġworthlessness":9460,"TICE":9461,"Ġarranging":9462,"Ġacuteness":9463,"Ġupwards":9464,"Ġelimin":9465,"Ġoccasions":9466,"Ġobserver":9467,"Ġobserves":9468,"Ġobservers":9469,"monition":9470,"Ġlegitim":9471,"Ġconsequentia":9472,"Ġneedful":9473,"Ġguilty":9474,"Ġresulted":9475,"Ġmodus":9476,"Ġmodified":9477,"Ġmodesty":9478,"Ġscatt":9479,"Ġcopied":9480,"Ġcopula":9481,"Ġnegations":9482,"arrive":9483,"subjects":9484,"ĠĠĠĠĠĠĠĠĠĠĠĠĠĠĠĠĠĠĠĠĠĠĠĠĠĠĠĠ":9485,"Ġnewsletter":9486,"Ġmaintenance":9487,"Ġreading":9488,"Ġbodily":9489,"Ġmethodology":9490,"obedience":9491,"Ġeasier":9492,"ovember":9493,"Ġovercome":9494,"Ġdogmas":9495,"Ġnonsense":9496,"synthetic":9497,"Ġdemonstrates":9498,"Ġanswering":9499,"Ġcoherence":9500,"Ġposterity":9501,"Ġpostpone":9502,"Ġexcepted":9503,"Ġmemory":9504,"Ġcontinual":9505,"Ġinquires":9506,"Ġidentify":9507,"Ġprovision":9508,"Ġprovides":9509,"Ġprovisions":9510,"Ġinstant":9511,"Ġmislead":9512,"Ġmiserable":9513,"Ġexpects":9514,"Ġhoping":9515,"Ġhoped":9516,"Ġhopeless":9517,"Ġdenote":9518,"Ġappreciation":9519,"ocent":9520,"extended":9521,"Ġceaseless":9522,"Ġobliges":9523,"Ġaffecting":9524,"Ġaffections":9525,"Ġprogressing":9526,"Ġgenerality":9527,"Ġgenerations":9528,"Ġremarkably":9529,"Ġvariable":9530,"Ġsuperstition":9531,"simony":9532,"Ġaids":9533,"blance":9534,"differences":9535,"Ġdraws":9536,"Ġaffirms":9537,"connects":9538,"Ġharmonizes":9539,"sometimes":9540,"Ġundisturbed":9541,"Ġyourselves":9542,"ĠYes":9543,"Ġbrief":9544,"Äłinter":9545,"Ġvolume":9546,"Ġjudicial":9547,"Ġfutility":9548,"Ġdistinctive":9549,"Ġoperate":9550,"Ġintrinsically":9551,"ĠAny":9552,"presence":9553,"Ġcorrective":9554,"limitations":9555,"Ġpretence":9556,"Ġabsor":9557,"Ġlieu":9558,"legal":9559,"Ġintuites":9560,"Ġleaden":9561,"Ġcontinuance":9562,"intelligent":9563,"intelligibility":9564,"ĠUniverse":9565,"Ġdynamically":9566,"impression":9567,"justification":9568,"Ġsupports":9569,"Ġsupporting":9570,"Ġtransfers":9571,"ordinate":9572,"ĠExt":9573,"Ġexhibition":9574,"Ġinsignific":9575,"Ġrecognises":9576,"Ġrecognised":9577,"Ġcombines":9578,"Ġdesignated":9579,"Ġkept":9580,"Ġabstracting":9581,"compare":9582,"Ġoccupying":9583,"Ġdonation":9584,"Ġdonors":9585,"Ġsurr":9586,"Ġsurpass":9587,"Ġsurrender":9588,"Ġsurveyed":9589,"Ġsurreptitious":9590,"Ġsurvive":9591,"Ġdelight":9592,"Ġapprove":9593,"confusion":9594,"confirmed":9595,"Ġreferring":9596,"created":9597,"Ġcircumference":9598,"Ġearlies":9599,"considering":9600,"considerable":9601,"quantitas":9602,"Ġorganism":9603,"ĠJuly":9604,"Ġsignifications":9605,"placed":9606,"distinguishing":9607,"ĠKey":9608,"ĠKIND":9609,"ĠREAD":9610,"people":9611,"Ġfurnishing":9612,"Ġseparately":9613,"Ġtested":9614,"Ġtestimony":9615,"worthiness":9616,"divided":9617,"Ġdisputing":9618,"Ġdisputation":9619,"Ġcreate":9620,"Ġcreations":9621,"Ġcarries":9622,"Ġcarried":9623,"Ġcarrying":9624,"Ġaccepts":9625,"Ġacceptation":9626,"Ġspeaks":9627,"value":9628,"ĊĊĊĊĠĠĠĠĠĠ":9629,"Ġsimilarly":9630,"Ġgains":9631,"Ġgaining":9632,"Ġcosmology":9633,"ĠState":9634,"ĠStaple":9635,"originally":9636,"originates":9637,"conformability":9638,"Ġinterfere":9639,"Ġintermediate":9640,"Ġintervention":9641,"Ġinterpreted":9642,"demonstrate":9643,"Ġwisely":9644,"Ġconversation":9645,"judged":9646,"Ġarts":9647,"providing":9648,"realitas":9649,"Ġcollective":9650,"ĠANTITHESIS":9651,"concealed":9652,"antecede":9653,"explained":9654,"Release":9655,"mortal":9656,"Ġ95":9657,"Ġ99":9658,"Ġtranscending":9659,"Ġtranscription":9660,"Ġtranscribe":9661,"Ġheterogeneity":9662,"criterion":9663,"greatness":9664,"Ġindisp":9665,"discovering":9666,"Ġcomprehending":9667,"Ġreciprocity":9668,"Ġprivativum":9669,"Ġprivilege":9670,"Ġequals":9671,"continually":9672,"denial":9673,"Ġsophistries":9674,"Ġfailing":9675,"Ġanalogon":9676,"Ġbackwards":9677,"ĠImper":9678,"Ġdetect":9679,"Ġdetail":9680,"airbanks":9681,"Ġpracticability":9682,"Ġinduces":9683,"Ġhumility":9684,"Ġhumble":9685,"Ġprocessing":9686,"Ġventures":9687,"Ġventured":9688,"EDIES":9689,"Ġturns":9690,"posted":9691,"postulate":9692,"Ġdiscerning":9693,"Ġcontributing":9694,"ĊĠĠĠĠĠĠĠĠĠĠĠĠĠĠĠĠĠĠ":9695,"ĊĠĠĠĠĠĠĠĠĠĠĠĠĠĠĠĠĠĠĠ":9696,"ĊĠĠĠĠĠĠĠĠĠĠĠĠĠĠĠĠĠĠĠĠĠĠĠ":9697,"Ġelevates":9698,"Ġweighty":9699,"Ġstudies":9700,"accordant":9701,"Ġantecedentia":9702,"nexus":9703,"looked":9704,"Ġmistrust":9705,"negation":9706,"contingency":9707,"Ġpunished":9708,"Ġpunishments":9709,"Ġcapability":9710,"indicating":9711,"Ġdestined":9712,"Ġdestitute":9713,"Ġglance":9714,"Ġglass":9715,"Ġglorious":9716,"Ġpreserved":9717,"ĠDefect":9718,"ĠDependence":9719,"ĠDecember":9720,"Ġ2000":9721,"Ġ2004":9722,"attempted":9723,"Ġintentionally":9724,"Ġqualification":9725,"Ġmarket":9726,"Ġnecessitates":9727,"START":9728,"expresses":9729,"expressed":9730,"expressions":9731,"Ġcrown":9732,"legislating":9733,"Ġproportionate":9734,"imagin":9735,"ĠPUNI":9736,"ĠPURPOSE":9737,"Ġprofession":9738,"Ġprofesses":9739,"steps":9740,"Ġguards":9741,"Ġguarding":9742,"operations":9743,"porated":9744,"Ġ64":9745,"Ġincreasing":9746,"Ġexcites":9747,"Ġshortest":9748,"ĠÃ¦sthetical":9749,"bidden":9750,"Ġoccurred":9751,"Ġoccurrence":9752,"Ġblindly":9753,"Ġboldly":9754,"Ġprosyllogism":9755,"Ġextricate":9756,"Ġdevi":9757,"Ġdevote":9758,"ĠChange":9759,"ĠDoes":9760,"Ġstronger":9761,"Ġgenuineness":9762,"PLIED":9763,"concilable":9764,"concerns":9765,"concerning":9766,"EMNITY":9767,"observations":9768,"signifies":9769,"Ġprimacy":9770,"approach":9771,"approbation":9772,"passages":9773,"intermediate":9774,"Ġtaxes":9775,"Ġordered":9776,"additional":9777,"ĠNOTICE":9778,"equal":9779,"equality":9780,"finds":9781,"ĠEverything":9782,"Ġillustrating":9783,"Experience":9784,"Ġlisten":9785,"Ġheads":9786,"Ġconfessed":9787,"deductible":9788,"attributes":9789,"attributed":9790,"Ġ1500":9791,"falls":9792,"fallacies":9793,"Ġprototyp":9794,"imperatives":9795,"ĠINTRODUCTION":9796,"ĠINCLUDING":9797,"ĠWhy":9798,"Ġsubstantia":9799,"Ġanticipations":9800,"Ġcontemplates":9801,"decided":9802,"Ġmeasured":9803,"Ġmeasurement":9804,"Ġchapters":9805,"ĠDisc":9806,"Ġroots":9807,"directly":9808,"restricting":9809,"importance":9810,"doubtful":9811,"single":9812,"transcendentally":9813,"PRESS":9814,"Ġdescent":9815,"Ġdescend":9816,"Ġdescription":9817,"Ġcommunication":9818,"ĠREMEDIES":9819,"Ġtreasure":9820,"Ġrejecting":9821,"Ġrejected":9822,"Ġhypocrisy":9823,"Ġattract":9824,"Ġevidences":9825,"ĠPhenomenal":9826,"Ġprejudices":9827,"ĠCONTRA":9828,"ĠCONCEPTION":9829,"ĠCONSEQU":9830,"Ġcommenced":9831,"Ġadmirable":9832,"assuming":9833,"pleasantness":9834,"occupy":9835,"bodies":9836,"Ġcurved":9837,"Ġtypes":9838,"Ġcultivate":9839,"conclusion":9840,"conclusions":9841,"Ġcounterpo":9842,"ĊĠĠĠĠĠĠĠĠĠĠĠĠĠĠĠĠĠĠĠĠĠĠĠĠĠĠĠĠĠĠ":9843,"Ġisolate":9844,"Ġlocations":9845,"Ġpremiss":9846,"ĠNeg":9847,"ĠMatthew":9848,"ĠMetaphysics":9849,"Ġapproximation":9850,"affirmative":9851,"intuited":9852,"intuitus":9853,"clearly":9854,"modes":9855,"sources":9856,"progression":9857,"prominently":9858,"Ġapprehended":9859,"Ġclearest":9860,"Ġdriven":9861,"Ġdimension":9862,"arbitrarily":9863,"arbitrium":9864,"resulting":9865,"ĠEBOOKS":9866,"Ġhonourable":9867,"enlargement":9868,"enlarged":9869,"continuation":9870,"anticipate":9871,"gradually":9872,"moving":9873,"Ġannouncement":9874,"Ġcentre":9875,"Ġdamage":9876,"Ġdamaged":9877,"agreeableness":9878,"ĠOrigin":9879,"Ġindefinitely":9880,"ĠHimself":9881,"ĠANYTHING":9882,"variety":9883,"Ġincite":9884,"demands":9885,"searchable":9886,"ABLE":9887,"CIDENTAL":9888,"Ġzeal":9889,"problematically":9890,"Ġerecting":9891,"Ġerected":9892,"conducted":9893,"Ġattacking":9894,"Ġmundo":9895,"Ġrepeat":9896,"Ġgift":9897,"Ġuniformity":9898,"Ġviolence":9899,"Ġviolates":9900,"ĠAntithetic":9901,"Ġsubmits":9902,"Ġconcealed":9903,"Ġsuperiority":9904,"Ġhumiliating":9905,"ĠPhysical":9906,"ĠPhysico":9907,"ĠIntuitions":9908,"deserving":9909,"LIGENCE":9910,"Ġafraid":9911,"communicated":9912,"ĠSTRICT":9913,"ĠBefore":9914,"ĠBeyond":9915,"uctible":9916,"Ġmidst":9917,"Ġflattering":9918,"idealism":9919,"Ġsharing":9920,"ĠWARRANTIES":9921,"Ġdespise":9922,"Ġenumerate":9923,"ĠEXPRESS":9924,"Ġcomputers":9925,"Ġcompensation":9926,"Ġguarantee":9927,"Ġwitnesses":9928,"Ġirreconcilable":9929,"dogmatism":9930,"qualities":9931,"accidental":9932,"accidentally":9933,"furnish":9934,"furnishes":9935,"Ġpresses":9936,"Ġruin":9937,"practised":9938,"mistake":9939,"bounds":9940,"boundaries":9941,"Ġconvenient":9942,"wanting":9943,"Ġtedious":9944,"Ġphilosophize":9945,"Ġpaperwork":9946,"Ġtouching":9947,"Ġtouchstone":9948,"Ġlicensed":9949,"Ġlurking":9950,"Ġdetriment":9951,"Ġdetrimental":9952,"Ġspoil":9953,"Ġspoken":9954,"Ġvacuum":9955,"ĠSometimes":9956,"ĠNorth":9957,"Ġsubstituted":9958,"Ġentertained":9959,"Ġcoincides":9960,"ĠANALOGY":9961,"Ġaccompanying":9962,"excluding":9963,"classification":9964,"deviate":9965,"Space":9966,"Speculative":9967,"involves":9968,"involved":9969,"annihilation":9970,"defective":9971,"Ġvessel":9972,"Ġsteadily":9973,"Ġsteadfast":9974,"Ġellipse":9975,"Ġparticipating":9976,"previously":9977,"Ġindubitably":9978,"Ġoffering":9979,"Ġsilence":9980,"Ġinextricable":9981,"seems":9982,"geometry":9983,"geometrical":9984,"Ġperplexity":9985,"ĠAbb":9986,"ĠParticular":9987,"Ġdissimilarity":9988,"ĠDISCLAIM":9989,"ĊĊĠĠĠĠĠĠĠĠĠĠĠĠĠĠĠĠĠĠĠĠĠĠĠĠĠĠĠĠĠĠĠĠĠĠĠĠĠĠĠĠĠĠĠĠĠĠĠĠĠĠ":9990,"Ġawakening":9991,"Ġawakened":9992,"Ġdeliberation":9993,"ĊĊĊĊĠĠĠĠĠĠĠĠĠĠĠĠĠĠĠĠĠĠĠĠĠĠĠĠĠĠĠĠĠĠĠĠĠĠĠĠĠĠĠĠĠĠĠĠĠĠĠĠĠĠ":9994,"Ġembraced":9995,"Granted":9996,"Ġachieve":9997,"supported":9998,"ipped":9999,"endeavours":10000,"Defects":10001,"cosmical":10002,"increasing":10003,"introduced":10004,"transcend":10005,"exhibited":10006,"probability":10007,"meritorious":10008,"peculiarity":10009,"uitous":10010,"Ġcasts":10011,"proportioned":10012,"sighted":10013,"thoroughly":10014,"estimation":10015,"descending":10016,"OSSIBILITY":10017,"Ġinnocent":10018,"Ġdarkness":10019,"Ġcomprises":10020,"Ġvital":10021,"Ġperceives":10022,"Ġperceiving":10023,"Ġdisguise":10024,"Ġdisguised":10025,"Ġcharges":10026,"Ġnearly":10027,"ĠGerman":10028,"ĠDespite":10029,"ĠDescartes":10030,"ĠMississipp":10031,"Ġ1787":10032,"Ġfriend":10033,"Ġfriends":10034,"Ġcounsels":10035,"Ġdeficient":10036,"Ġescaping":10037,"Ġescaped":10038,"Ġipso":10039,"confirms":10040,"magnitude":10041,"Ġromance":10042,"anthropomorphism":10043,"yielding":10044,"removed":10045,"PROJECT":10046,"Ġauthentic":10047,"ĠINDIRECT":10048,"professing":10049,"Ġriches":10050,"Ġastronom":10051,"Ġtheorem":10052,"Ġwarns":10053,"Ġcensure":10054,"Ġinspire":10055,"Ġincorporated":10056,"Ġrefined":10057,"Ġrevelation":10058,"Ġlowest":10059,"ĠIMPLIED":10060,"Ġspeculations":10061,"Ġrigorous":10062,"Ġrarely":10063,"Ġperpetually":10064,"Ġreluctant":10065,"Ġpreparation":10066,"Ġcommercial":10067,"Ġinfringement":10068,"Ġappropriated":10069,"Ġchemical":10070,"Ġfacilitate":10071,"Ġtautology":10072,"Ġdownloading":10073,"Ġbeneficent":10074,"Ġrecommendation":10075,"Ġpetty":10076,"Ġsociety":10077,"Synthetical":10078,"significance":10079,"Although":10080,"Mathematics":10081,"VIDED":10082,"members":10083,"written":10084,"Against":10085,"dangerous":10086,"smelling":10087,"Ġsemblance":10088,"Ġbeside":10089,"Ġmerits":10090,"Ġanthropomorphic":10091,"towards":10092,"Ġtemperament":10093,"Ġincontestably":10094,"Ġeconom":10095,"Ġlofty":10096,"Ġuninterrupted":10097,"Ġunanswerable":10098,"ofessor":10099,"Ġtroubling":10100,"Ġimpracticable":10101,"Ġstopped":10102,"ĠPerson":10103,"ĠSensuous":10104,"ĠOpinion":10105,"ĠGospel":10106,"Ġgratefully":10107,"Ġremedy":10108,"ĠEnglish":10109,"Ġamidst":10110,"ĠDOCTRIN":10111,"Ġinviolable":10112,"Ġaffairs":10113,"Ġindulge":10114,"Ġantiquity":10115,"Ġassertorically":10116,"Ġcoalition":10117,"Ġundeniable":10118,"Ġvoluntary":10119,"ĠArguments":10120,"Ġfancied":10121,"Ġextravagant":10122,"Ġcomplaints":10123,"ĠMonadists":10124,"Ġauxiliary":10125,"principium":10126,"viour":10127,"inevitably":10128,"omaton":10129,"Ġrapid":10130,"Fourthly":10131,"NESS":10132,"WARRANTIES":10133,"ĠCHAPTER":10134,"ENTIAL":10135,"commercium":10136,"Ġtantamount":10137,"Ġcursory":10138,"Ġcushion":10139,"Ġfingers":10140,"Ġelegance":10141,"Ġearnest":10142,"Ġepoch":10143,"Ġbehaviour":10144,"Ġgenealogical":10145,"ĠTRANSITION":10146,"Ġunanimously":10147,"Ġsprung":10148,"Ġvulgar":10149,"Ġtravel":10150,"ĠFROM":10151,"ĠFITNESS":10152,"ĠAugust":10153,"ĠPreface":10154,"ĠSUCH":10155,"ĠNEGLIGENCE":10156,"ĠMERCHANTABILITY":10157,"ĠReplacement":10158,"Ġindestructible":10159,"Ġlegitimacy":10160,"Ġscattered":10161,"Ġinsignificant":10162,"Ġearliest":10163,"ĠStapleton":10164,"ĠPUNITIVE":10165,"Ġprototype":10166,"ĠCONTRACT":10167,"ĠCONCEPTIONS":10168,"ĠCONSEQUENTIAL":10169,"Ġcounterpoise":10170,"ĠDISCLAIMER":10171,"ĠMississippi":10172,"ĠDOCTRINE":10173,"aut":10174,"gn":10175,"mark":10176,"vous":10177,"Ã¢Ä¢Ä":10178,"Ġility":10179,"Ġides":10180,"Ġtic":10181,"Ġcing":10182,"Ġments":10183,"Ġnt":10184,"ompl":10185,"ÄłV":10186,"Äłul":10187,"Äłto":10188,"Äłcons":10189,"Äłcor":10190,"erect":10191,"care":10192,"ĠPH":10193,"ievous":10194,"ÃĦÅĤP":10195,"Ġowed":10196,"Ġences":10197,"overn":10198,"ĠRI":10199,"sensib":10200,"redistrib":10201,"Äłmod":10202,"ĠÄłÄłÄłÄłÄłÄł":10203,"12":10204,"LAR":10205,"MENT":10206,"ok":10207,"ros":10208,"vered":10209,"Ġener":10210,"ĠQU":10211,"Ġame":10212,"Ġoy":10213,"erc":10214,"Ġpp":10215,"Ġning":10216,"seurs":10217,"Ġree":10218,"Ġrect":10219,"Ġduc":10220,"asur":10221,"Ġures":10222,"Ġured":10223,"Äłk":10224,"Äłut":10225,"Äłcogn":10226,"Äłarr":10227,"Äłbr":10228,"ĠIS":10229,"Ġven":10230,"Ġification":10231,"phil":10232,"Ġevol":10233,"ĠAS":10234,"tell":10235,"fulfil":10236,"luct":10237,"strugg":10238,"Ġuted":10239,"apper":10240,"Äłsc":10241,"Äłfr":10242,"ÃĥÄ¦ÃĦ":10243,"Äłaff":10244,"apprehend":10245,"Äłprop":10246,"ÄłÄłÄłÄłÄłÄłÄłÄłÄłÄłÄłÄłÄłÄłÄłÄłÄłÄłÄłÄłÄłÄłÄłÄł":10247,"SION":10248,"contempor":10249,"OSO":10250,"Che":10251,"Im":10252,"NO":10253,"UB":10254,"ah":10255,"astr":10256,"gen":10257,"gest":10258,"Â¢":10259,"ÃĤ":10260,"Ġication":10261,"Ġided":10262,"Ġively":10263,"Ġizing":10264,"ĠÃĥÄ¥ÃĦ":10265,"Ġtical":10266,"isc":10267,"enn":10268,"erum":10269,"Ġption":10270,"Ġined":10271,"esca":10272,"Ġising":10273,"Ġishes":10274,"stac":10275,"Äłter":10276,"Äłver":10277,"Äłif":10278,"Äłact":10279,"Äłsol":10280,"Äłha":10281,"Äłass":10282,"Äłreg":10283,"Äłatt":10284,"Äłgu":10285,"ÄłEx":10286,"Ġalle":10287,"amorph":10288,"Ġstone":10289,"ĠAR":10290,"ÃĦÅĤA":10291,"Ġene":10292,"Ġency":10293,"overably":10294,"ĠLI":10295,"blind":10296,"Äłche":10297,"commend":10298,"icipations":10299,"ICAL":10300,"Äłdel":10301,"Ġversion":10302,"capit":10303,"indubit":10304,"omnipot":10305,"AT":10306,"Com":10307,"USION":10308,"aud":10309,"adequ":10310,"bat":10311,"bungl":10312,"cher":10313,"cob":10314,"citiz":10315,"dur":10316,"dam":10317,"dile":10318,"dimin":10319,"fanci":10320,"govern":10321,"hn":10322,"hic":10323,"hist":10324,"hyp":10325,"iog":10326,"loc":10327,"moun":10328,"mock":10329,"night":10330,"null":10331,"pict":10332,"rhapsod":10333,"sa":10334,"spl":10335,"tre":10336,"temper":10337,"ugg":10338,"voc":10339,"wond":10340,"zer":10341,"zism":10342,"Ġnd":10343,"Ġutes":10344,"Ġ00":10345,"Ġ*****":10346,"Ġase":10347,"Ġathe":10348,"Ġake":10349,"inj":10350,"incomp":10351,"Ġopt":10352,"reve":10353,"redu":10354,"ister":10355,"isol":10356,"isyllogism":10357,"isseurs":10358,"enesis":10359,"attr":10360,"erv":10361,"Ġcert":10362,"Ġses":10363,"Ġpus":10364,"ican":10365,"icros":10366,"Ġiness":10367,"Ġban":10368,"orment":10369,"Ġfect":10370,"Ġnis":10371,"sever":10372,"oure":10373,"Ġises":10374,"Ġcond":10375,"ste":10376,"arond":10377,"lled":10378,"iveness":10379,"imm":10380,"osoph":10381,"Ġane":10382,"Ġfort":10383,"urp":10384,"ÄłK":10385,"Äłnot":10386,"Äłph":10387,"Äłso":10388,"Äłme":10389,"Äłser":10390,"Äłpar":10391,"ÄłTh":10392,"Äłdisc":10393,"ÄłRe":10394,"ulog":10395,"empl":10396,"empiric":10397,"consol":10398,"condem":10399,"ampl":10400,"def":10401,"depre":10402,"depart":10403,"olens":10404,"tranqu":10405,"Ġexistent":10406,"Ġtries":10407,"ctions":10408,"pron":10409,"Ġhed":10410,"succeed":10411,"Ġusion":10412,"antagon":10413,"exec":10414,"exto":10415,"acknowled":10416,"unfortun":10417,"Ġyp":10418,"prepar":10419,"preponder":10420,"pregn":10421,"Ġplays":10422,"ortun":10423,"ÃĦÅĤC":10424,"ÃĦÅĤD":10425,"ÃĦÅĤa":10426,"ÃĦÅĤpr":10427,"measur":10428,"compl":10429,"servation":10430,"Ġcommend":10431,"weak":10432,"session":10433,"Ġentities":10434,"eciproc":10435,"necessit":10436,"ysms":10437,"ginia":10438,"ĠUS":10439,"accompl":10440,"Introdu":10441,"Ġian":10442,"Ġily":10443,"subsum":10444,"Ġrighteous":10445,"overe":10446,"Ġinfluenced":10447,"ontal":10448,"short":10449,"presum":10450,"Äłcrit":10451,"Äłcoun":10452,"Äłrep":10453,"Äłreal":10454,"Äłfe":10455,"ruin":10456,"comput":10457,"ometry":10458,"Äłden":10459,"iana":10460,"Subst":10461,"superior":10462,"Ġcapit":10463,"STEM":10464,"culation":10465,"ÄĬÄĬÄĬÄĬ":10466,"cheson":10467,"ILOSO":10468,"Quod":10469,"figur":10470,"symbol":10471,"Ġlucid":10472,"school":10473,"ibrium":10474,"forceability":10475,"NOW":10476,"25":10477,"AF":10478,"ARA":10479,"Arist":10480,"BC":10481,"Certain":10482,"Crit":10483,"Categor":10484,"DEM":10485,"DAMAG":10486,"EI":10487,"GRA":10488,"Ju":10489,"Logical":10490,"LEMENT":10491,"Me":10492,"MAL":10493,"NER":10494,"ORO":10495,"Ple":10496,"Possib":10497,"Part":10498,"Reven":10499,"STHE":10500,"Thing":10501,"US":10502,"Unt":10503,"bi":10504,"bes":10505,"bed":10506,"bus":10507,"back":10508,"bnew":10509,"cence":10510,"civil":10511,"doll":10512,"drop":10513,"ein":10514,"ebr":10515,"fan":10516,"fict":10517,"fruit":10518,"gy":10519,"hind":10520,"hop":10521,"hio":10522,"mund":10523,"mov":10524,"oqu":10525,"oca":10526,"pob":10527,"ral":10528,"ront":10529,"sound":10530,"tw":10531,"upright":10532,"uphold":10533,"vict":10534,"welf":10535,"Â¬":10536,"Äī":10537,"Ġ&":10538,"Ġq":10539,"Ġject":10540,"Ġile":10541,"Ġived":10542,"Ġicism":10543,"Ġts":10544,"Ġaver":10545,"Ġaequ":10546,"inated":10547,"inward":10548,"reject":10549,"reption":10550,"repe":10551,"resem":10552,"reluct":10553,"recommend":10554,"itating":10555,"encour":10556,"aten":10557,"ature":10558,"erving":10559,"Ġck":10560,"alar":10561,"altern":10562,"alleg":10563,"iced":10564,"Ġinstructive":10565,"Ġbit":10566,"Ġber":10567,"Ġmit":10568,"Ġmus":10569,"Ġmill":10570,"Ġnet":10571,"secret":10572,"Ġishing":10573,"Ġconqu":10574,"Ġdiction":10575,"start":10576,"starr":10577,"omnit":10578,"otot":10579,"arol":10580,"ectyp":10581,"Ġhole":10582,"Ġash":10583,"Ġude":10584,"theore":10585,"improv":10586,"Ġangu":10587,"Ġlib":10588,"ithful":10589,"ibib":10590,"Ġsuited":10591,"ldarond":10592,"urning":10593,"Äłic":10594,"Äłce":10595,"Äłend":10596,"Äłout":10597,"Äłwh":10598,"Äłform":10599,"Äłpart":10600,"Äłsim":10601,"Äłsupp":10602,"vert":10603,"qui":10604,"aindrop":10605,"ift":10606,"persist":10607,"perpet":10608,"perplex":10609,"ĠTION":10610,"conjunct":10611,"veil":10612,"endour":10613,"endels":10614,"Ġals":10615,"amps":10616,"abol":10617,"abilities":10618,"detr":10619,"selfish":10620,"Ġcaution":10621,"ansas":10622,"minor":10623,"iestle":10624,"offer":10625,"Ġrit":10626,"Ġring":10627,"Ġement":10628,"prag":10629,"useful":10630,"suppos":10631,"exert":10632,"excell":10633,"acid":10634,"accept":10635,"ultimate":10636,"unceasing":10637,"uniform":10638,"Ġys":10639,"Ġying":10640,"ĠPO":10641,"ĠPER":10642,"strong":10643,"oyed":10644,"beho":10645,"ÃĦÅĤun":10646,"commen":10647,"Theoretical":10648,"Ġcommencing":10649,"icium":10650,"ishable":10651,"Ġrespective":10652,"web":10653,"Ġeness":10654,"paradox":10655,"ĠEM":10656,"aven":10657,"display":10658,"canon":10659,"contrast":10660,"Ġium":10661,"arrogant":10662,"Ġings":10663,"obstac":10664,"Ġuting":10665,"Ġception":10666,"Ġawa":10667,"correction":10668,"philosoph":10669,"Äłcirc":10670,"causal":10671,"Ġ55":10672,"Äłprom":10673,"Äłpost":10674,"Äłdiv":10675,"Ġconverted":10676,"ĠAND":10677,"retched":10678,"Protot":10679,"Ġately":10680,"Ġpractised":10681,"Äłextr":10682,"JECTIVE":10683,"Ġ75":10684,"Ġguarded":10685,"iliates":10686,"versed":10687,"collect":10688,"Ġpleasantness":10689,"oppon":10690,"ULAR":10691,"Ġmovable":10692,"major":10693,"detect":10694,"TRADEM":10695,"skill":10696,"Ġference":10697,"LARY":10698,"cobweb":10699,"splendour":10700,"condemn":10701,"\"),":10702,"($":10703,")-":10704,")?":10705,"*(":10706,".]":10707,".),":10708,"02":10709,"04":10710,"14":10711,"21":10712,"23":10713,"24":10714,"26":10715,"27":10716,"28":10717,"29":10718,"30":10719,"31":10720,"32":10721,"33":10722,"34":10723,"35":10724,"36":10725,"37":10726,"38":10727,"42":10728,"43":10729,"44":10730,"46":10731,"47":10732,"48":10733,"49":10734,"4280":10735,"51":10736,"52":10737,"53":10738,"54":10739,"56":10740,"58":10741,"59":10742,"60":10743,"61":10744,"62":10745,"63":10746,"64":10747,"65":10748,"66":10749,"67":10750,"69":10751,"70":10752,"72":10753,"73":10754,"74":10755,"76":10756,"77":10757,"81":10758,"87":10759,"96":10760,";[":10761,"AY":10762,"AIN":10763,"Apperception":10764,"APPENDIX":10765,"Between":10766,"Cosmological":10767,"Critical":10768,"Creating":10769,"DIC":10770,"Dialectic":10771,"Different":10772,"DURE":10773,"End":10774,"FUND":10775,"GEMENT":10776,"GENERAL":10777,"His":10778,"Human":10779,"Have":10780,"ITH":10781,"Last":10782,"Love":10783,"Logic":10784,"Locke":10785,"LAF":10786,"LLARY":10787,"Michael":10788,"Non":10789,"Or":10790,"Plato":10791,"RTH":10792,"Two":10793,"Upon":10794,"UAL":10795,"Updated":10796,"VII":10797,"Volunteers":10798,"WNER":10799,"Yes":10800,"YSTEM":10801,"].":10802,"_[":10803,"aos":10804,"augment":10805,"ball":10806,"besides":10807,"bservation":10808,"cs":10809,"cible":10810,"crowd":10811,"casus":10812,"coverably":10813,"data":10814,"eper":10815,"efficient":10816,"egr":10817,"eveloped":10818,"eometry":10819,"full":10820,"fix":10821,"flection":10822,"faces":10823,"filled":10824,"fancy":10825,"gone":10826,"gained":10827,"hart":10828,"hold":10829,"hitherto":10830,"holiness":10831,"homogeneity":10832,"iary":10833,"iently":10834,"jacent":10835,"kingdom":10836,"lose":10837,"link":10838,"llect":10839,"laid":10840,"lcome":10841,"lio":10842,"lix":10843,"lurality":10844,"liability":10845,"mn":10846,"mal":10847,"mill":10848,"munity":10849,"macy":10850,"moments":10851,"nicious":10852,"ober":10853,"oved":10854,"port":10855,"past":10856,"putes":10857,"piece":10858,"rd":10859,"rum":10860,"rible":10861,"rances":10862,"rash":10863,"sin":10864,"sies":10865,"sought":10866,"sake":10867,"sided":10868,"scribed":10869,"sciences":10870,"tact":10871,"table":10872,"task":10873,"tlest":10874,"useless":10875,"vocation":10876,"wished":10877,"water":10878,"wrong":10879,"wants":10880,"xury":10881,"yers":10882,"ypon":10883,"ĊĠĠĠ":10884,"ĠX":10885,"Ġension":10886,"Ġensive":10887,"Ġiving":10888,"Ġibility":10889,"Ġiding":10890,"Ġtib":10891,"Ġtem":10892,"Ġtrem":10893,"Ġtends":10894,"Ġtutor":10895,"Ġtorment":10896,"heart":10897,"Ġawe":10898,"Ġays":10899,"Ġaken":10900,"Ġaversion":10901,"ina":10902,"inent":10903,"inning":10904,"inability":10905,"internally":10906,"inery":10907,"inheres":10908,"inconceivable":10909,"Ġomission":10910,"Ġthee":10911,"Ġtheist":10912,"reach":10913,"received":10914,"rehension":10915,"recognize":10916,"repute":10917,"reputation":10918,"itial":10919,"itudes":10920,"ititious":10921,"enforceability":10922,"ats":10923,"atical":10924,"atur":10925,"aturn":10926,"eron":10927,"eration":10928,"erate":10929,"erring":10930,"Ġwal":10931,"Ġwent":10932,"Ġwound":10933,"Ġwarr":10934,"Ġwild":10935,"Ġwrest":10936,"Ġwatch":10937,"Ġwrought":10938,"Ġwretched":10939,"Ġcou":10940,"Ġcun":10941,"Ġcover":10942,"Ġcath":10943,"Ġcount":10944,"Ġcub":10945,"Ġcrowd":10946,"Ġcasus":10947,"Ġcodes":10948,"Ġsi":10949,"Ġsit":10950,"Ġsion":10951,"Ġsend":10952,"Ġsink":10953,"Ġsap":10954,"Ġsites":10955,"Ġsadly":10956,"Ġpu":10957,"Ġpal":10958,"Ġpir":10959,"Ġpill":10960,"Ġpose":10961,"Ġpause":10962,"Ġpoly":10963,"Ġpomp":10964,"Ġpush":10965,"icing":10966,"Ġinan":10967,"Ġinform":10968,"Ġinane":10969,"Ġinexpl":10970,"Ġincompar":10971,"Ġinestim":10972,"Ġinconceivable":10973,"Ġinhabit":10974,"Ġinequality":10975,"Ġinsensib":10976,"esult":10977,"Ġbare":10978,"Ġblessed":10979,"Ġthine":10980,"Ġthresh":10981,"Ġthousand":10982,"orter":10983,"orably":10984,"orned":10985,"origination":10986,"Ġms":10987,"Ġmir":10988,"Ġmover":10989,"Ġtold":10990,"celebrated":10991,"ctober":10992,"Ġfain":10993,"Ġfif":10994,"Ġfame":10995,"Ġfight":10996,"Ġfra":10997,"Ġfatum":10998,"Ġflight":10999,"Ġfier":11000,"analytic":11001,"animity":11002,"Ġnes":11003,"Ġnations":11004,"Ġeb":11005,"Ġeff":11006,"Ġelect":11007,"Ġeulog":11008,"severest":11009,"oup":11010,"lying":11011,"left":11012,"Ġreat":11013,"Ġrely":11014,"Ġreign":11015,"Ġreward":11016,"Ġrecall":11017,"Ġreap":11018,"Ġrenew":11019,"Ġreproduction":11020,"Ġretrace":11021,"Ġrecapit":11022,"Ġrerum":11023,"Ġith":11024,"Ġcone":11025,"Ġconced":11026,"Ġcondem":11027,"Ġconvey":11028,"Ġconveyed":11029,"Ġconducive":11030,"Ġdil":11031,"Ġdie":11032,"Ġdress":11033,"Ġdial":11034,"Ġdates":11035,"Ġdull":11036,"Ġdumb":11037,"Ġdrew":11038,"Ġbead":11039,"Ġbeque":11040,"Ġbefits":11041,"stain":11042,"states":11043,"stability":11044,"status":11045,"stones":11046,"omas":11047,"omain":11048,"omaly":11049,"entities":11050,"Ġwhol":11051,"aring":11052,"arities":11053,"asp":11054,"ascribed":11055,"asibility":11056,"utmost":11057,"utcheson":11058,"ections":11059,"Ġhide":11060,"Ġhost":11061,"Ġhover":11062,"Ġprize":11063,"Ġprae":11064,"Ġproud":11065,"Ġprogram":11066,"Ġaspir":11067,"Ġually":11068,"thening":11069,"ival":11070,"ivial":11071,"ivisible":11072,"ivoca":11073,"impose":11074,"imposes":11075,"immortality":11076,"immaterial":11077,"ossession":11078,"Ġanxious":11079,"Ġanterior":11080,"Ġanomaly":11081,"Ġexceed":11082,"Ġexchange":11083,"Ġexcess":11084,"Ġexhort":11085,"Ġexempl":11086,"Ġlend":11087,"Ġlust":11088,"Ġloth":11089,"Ġlack":11090,"Ġliable":11091,"Ġlau":11092,"Ġlibr":11093,"Ġliberum":11094,"Ġnotifies":11095,"ptuously":11096,"jective":11097,"Ġweari":11098,"Ġweighed":11099,"Ġwelcome":11100,"Ġforge":11101,"Ġforbe":11102,"Ġforcing":11103,"Ġforfe":11104,"Ġforsakes":11105,"idity":11106,"idens":11107,"idger":11108,"idnight":11109,"ibles":11110,"Ġsupre":11111,"Ġsuspect":11112,"Ġsunt":11113,"ceptical":11114,"ceptible":11115,"teronomy":11116,"ureans":11117,"iration":11118,"irginia":11119,"Ġgout":11120,"Ġgaps":11121,"Ġgbnew":11122,"Ġwithstand":11123,"urred":11124,"Äłog":11125,"Äłill":11126,"Äłall":11127,"Äłpos":11128,"Äłca":11129,"Äłop":11130,"Äłsy":11131,"Äłav":11132,"Äłman":11133,"Äłcont":11134,"Äłdist":11135,"ÄłRE":11136,"Äładv":11137,"Äłsuper":11138,"Äłtrans":11139,"ciate":11140,"versely":11141,"ĠId":11142,"querable":11143,"ogue":11144,"resides":11145,"istences":11146,"Ġorn":11147,"Ġorator":11148,"Ġorbits":11149,"Ġcanst":11150,"ifling":11151,"ecum":11152,"ecutive":11153,"ecundity":11154,"andi":11155,"ando":11156,"andal":11157,"anded":11158,"andom":11159,"permit":11160,"perceived":11161,"permission":11162,"persuasion":11163,"sels":11164,"ulzer":11165,"Ġallot":11166,"Ġallure":11167,"Ġallied":11168,"emy":11169,"romise":11170,"Ġprolix":11171,"Ġreasonably":11172,"conveyed":11173,"converted":11174,"conducive":11175,"conversely":11176,"conquerable":11177,"Ġared":11178,"ateful":11179,"charge":11180,"chasm":11181,"chievous":11182,"charities":11183,"ilation":11184,"ilanthrop":11185,"ilibrium":11186,"Ġdeter":11187,"Ġdefe":11188,"Ġdearest":11189,"Ġdelet":11190,"Ġdepict":11191,"Ġdeeper":11192,"Ġalarm":11193,"ored":11194,"Ġintact":11195,"Ġintimate":11196,"Ġintimid":11197,"Ġintegr":11198,"activity":11199,"usable":11200,"usiveness":11201,"Ġhaph":11202,"illain":11203,"amination":11204,"abile":11205,"abiding":11206,"abyss":11207,"plies":11208,"plays":11209,"planation":11210,"places":11211,"placing":11212,"pliance":11213,"plausible":11214,"Ġunt":11215,"Ġunw":11216,"Ġunre":11217,"Ġuntr":11218,"Ġunsh":11219,"Ġunjust":11220,"Ġunreal":11221,"Ġunnecessarily":11222,"Ġunqual":11223,"Ġunbelief":11224,"Ġunexception":11225,"Ġunsatisfied":11226,"Ġunsett":11227,"Ġunchanged":11228,"Ġunusual":11229,"Ġuninfluenced":11230,"Ġunrestricted":11231,"Ġunalter":11232,"Ġunguarded":11233,"Ġunbidden":11234,"Ġunyielding":11235,"Ġunlink":11236,"Ġunerring":11237,"Ġunconquerable":11238,"ditions":11239,"ditional":11240,"deceived":11241,"deistic":11242,"olence":11243,"ollection":11244,"igence":11245,"igour":11246,"ĠĠĠĠĠĠĠĠĠĠĠĠ":11247,"Ġcael":11248,"Ġcautious":11249,"Ġ(\"":11250,"Ġ(*":11251,"trod":11252,"tried":11253,"track":11254,"Ġspur":11255,"Ġspher":11256,"Ġsport":11257,"Ġcomets":11258,"Ġrot":11259,"Ġrich":11260,"Ġrose":11261,"Ġrude":11262,"Ġraces":11263,"Ġriver":11264,"Ġrhet":11265,"Ġraindrop":11266,"esting":11267,"Ġempire":11268,"Ġworse":11269,"Ġexistential":11270,"herself":11271,"ĊĊĠĠ":11272,"ĊĊĉĉ":11273,"Ġva":11274,"Ġvast":11275,"Ġvigour":11276,"Ġtrial":11277,"Ġtraces":11278,"Ġtriang":11279,"Ġtranqu":11280,"Ġtrivial":11281,"Ġtrifling":11282,"Ġwillingly":11283,"foreign":11284,"foreseen":11285,"ĠBerke":11286,"usement":11287,"aked":11288,"Ġimmaterial":11289,"Ġimproved":11290,"Ġimmortal":11291,"Ġimpregn":11292,"Ġabsol":11293,"Ġabund":11294,"Ġperish":11295,"Ġperman":11296,"Ġpertains":11297,"Ġpernicious":11298,"orially":11299,"Ġformarum":11300,"Ġnative":11301,"Ġnatura":11302,"Ġnobl":11303,"supposed":11304,"supposing":11305,"suitable":11306,"ameter":11307,"posits":11308,"positio":11309,"Ġkat":11310,"Ġknew":11311,"indifference":11312,"indulgence":11313,"Ġregions":11314,"Ġregret":11315,"Ġregulated":11316,"Ġusurp":11317,"externally":11318,"exhausted":11319,"exterior":11320,"exactly":11321,"phrase":11322,"Ġshame":11323,"Ġshake":11324,"Ġshine":11325,"Ġshaken":11326,"Ġshield":11327,"Ġshared":11328,"Ġshorter":11329,"ĠFunction":11330,"ĠFull":11331,"ĠFAC":11332,"ĠFairbanks":11333,"ĠFebr":11334,"Ġsea":11335,"Ġseyn":11336,"outside":11337,"outset":11338,"Ġcognise":11339,"Ġcogniz":11340,"Ġcognitio":11341,"Ġcognisable":11342,"Ġstat":11343,"Ġstory":11344,"Ġstars":11345,"Ġstored":11346,"udo":11347,"Ġquib":11348,"Ġideally":11349,"Ġreliable":11350,"Ġevade":11351,"wholly":11352,"anced":11353,"ĠAK":11354,"ĠAre":11355,"ĠAff":11356,"ĠACT":11357,"ĠAldarond":11358,"oury":11359,"ource":11360,"Ġjugg":11361,"Ġjesting":11362,"Ġaccum":11363,"Ġaccru":11364,"Ġaccused":11365,"Ġaccredit":11366,"Ġmanhood":11367,"ultaneity":11368,"unite":11369,"unted":11370,"units":11371,"uncertain":11372,"unnecessary":11373,"unlimited":11374,"uncertainty":11375,"uniting":11376,"until":11377,"unchangeable":11378,"untrue":11379,"unciated":11380,"unsearchable":11381,"Ġunderstandings":11382,"Ġadjust":11383,"Ġadjacent":11384,"Ġadjective":11385,"sequence":11386,"forward":11387,"Ġyaw":11388,"Ġyoke":11389,"ĠPublic":11390,"ĠPlease":11391,"ĠPolem":11392,"ĠPOSSIBILITY":11393,"ĠPARA":11394,"ĠPlurality":11395,"Ġdismis":11396,"Ġdisappro":11397,"Ġdisadvantage":11398,"Ġdisposing":11399,"Ġdiscontinu":11400,"Ġdiscontinue":11401,"Ġdisappeared":11402,"Ġdispleases":11403,"Ġdisrepute":11404,"positions":11405,"),[":11406,"etus":11407,"etting":11408,"etched":11409,"sohn":11410,"Ġknowable":11411,"strings":11412,"striking":11413,"Ġprecl":11414,"Ġpreference":11415,"Ġprefers":11416,"Ġpreponder":11417,"Ġpreposited":11418,"Ġprecaution":11419,"Ġpremise":11420,"Ġpremonition":11421,"ĠThough":11422,"ĠThirdly":11423,"ĠThomas":11424,"Ġarouse":11425,"Ġchamp":11426,"Ġchaos":11427,"eneration":11428,"enerally":11429,"Ġrepresentative":11430,"spaces":11431,"Ġsomewhere":11432,"Ġeveryday":11433,"ĠĠĠĠĠĠĠĠĠĠĠĠĠĠĠĠĠ":11434,"ĠĠĠĠĠĠĠĠĠĠĠĠĠĠĠĠĠĠĠ":11435,"Ġsyntheses":11436,"ĠSing":11437,"ĠSense":11438,"ĠSEND":11439,"ĠSecond":11440,"ĠSalt":11441,"ĠSenses":11442,"ĠSpirit":11443,"ĠSciences":11444,"ĠSimilarly":11445,"ĠSUB":11446,"ĠSMAL":11447,"ĠSaturn":11448,"ĠSceptical":11449,"Ġphilanthrop":11450,"solved":11451,"ensity":11452,"ensome":11453,"predetermined":11454,"prehensible":11455,"prepared":11456,"ĠName":11457,"ĠNoumen":11458,"ĠNihil":11459,"ĠNearly":11460,"ĠNovember":11461,"oying":11462,"nesses":11463,"ĠOtherwise":11464,"ĠOWNER":11465,"ĠOctober":11466,"Ġsubdu":11467,"Ġsubsid":11468,"possibilities":11469,"imitable":11470,"Ġfrees":11471,"conditional":11472,"ĠIncl":11473,"Ġplun":11474,"Ġcertainties":11475,"Ġenduring":11476,"Ġcompleting":11477,"orting":11478,"Ġcontending":11479,"ĠGover":11480,"ĠGenerally":11481,"ĠWould":11482,"ĠWell":11483,"ĠWOR":11484,"ĠWIL":11485,"ĠWITH":11486,"ĠWidger":11487,"Ġwhenever":11488,"ÃĦÅĤS":11489,"ÃĦÅĤv":11490,"ployment":11491,"Ġgroup":11492,"Ġgrasp":11493,"gory":11494,"meet":11495,"Ġcontrari":11496,"Ġgold":11497,"Theological":11498,"ĠCity":11499,"ĠComp":11500,"ĠCAN":11501,"ĠCOM":11502,"ĠCartes":11503,"ĠCORO":11504,"ĠCarol":11505,"Ġowe":11506,"astically":11507,"served":11508,"forming":11509,"Ġobno":11510,"Ġobsole":11511,"Ġconnections":11512,"proves":11513,"proposed":11514,"Ġdesist":11515,"Ġdescribes":11516,"Ġdespot":11517,"Ġfounding":11518,"oldest":11519,"Ġcommences":11520,"Ġcommerce":11521,"Ġdistrust":11522,"arius":11523,"Ġfollowers":11524,"Ġemployee":11525,"Ġwashed":11526,"Ġrationalist":11527,"Ġrationalism":11528,"withdrawn":11529,"Ġpurified":11530,"Ġdiscord":11531,"Ġremember":11532,"Ġremembered":11533,"ĠHas":11534,"ĠHad":11535,"ĠHitherto":11536,"ĠHarmon":11537,"deriv":11538,"Ġactor":11539,"Ġactuating":11540,"weaken":11541,"Ġenunciation":11542,"Ġenlightened":11543,"Ġenemy":11544,"âĢĿ.":11545,"âĢĿ),":11546,"Ġextol":11547,"Ġextingu":11548,"Ġagency":11549,"overlook":11550,"overstep":11551,"overthrow":11552,"Ġvaluel":11553,"paralogism":11554,"undertaking":11555,"Ġgrounding":11556,"medium":11557,"mediable":11558,"ĠEs":11559,"ĠEqu":11560,"ĠEdition":11561,"ĠElucid":11562,"ĠEmail":11563,"ĠEBC":11564,"ĠELEMENT":11565,"ĠReciproc":11566,"Ġterminis":11567,"Ġterrible":11568,"Ġpresume":11569,"Ġpresiding":11570,"Ġoutwe":11571,"Ġoutdated":11572,"Ġexpend":11573,"Ġexpedient":11574,"Ġexporting":11575,"woven":11576,"existed":11577,"existences":11578,"Ġamply":11579,"Ġreale":11580,"Ġrealitates":11581,"Ġentrance":11582,"ava":11583,"Ġperfections":11584,"mankind":11585,"physician":11586,"physiological":11587,"Ġattends":11588,"ogito":11589,"ĠDE":11590,"ĠDest":11591,"ĠDirect":11592,"ĠDON":11593,"ĠDOM":11594,"ĠDomain":11595,"assion":11596,"assent":11597,"assable":11598,"assistance":11599,"identity":11600,"identical":11601,"hematism":11602,"Ġfacti":11603,"determinable":11604,"cognizing":11605,"Ġimpure":11606,"Ġimpair":11607,"Ġimpelling":11608,"Ġimpenetrable":11609,"Ġimpaired":11610,"Ġimpassable":11611,"ypal":11612,"Thought":11613,"Ġcorpor":11614,"Ġconstituent":11615,"Ġpurposely":11616,"Ġherein":11617,"ĊĊĊĠĠĠĠĠĠĠĠĠĠĠĠĠĠĠĠĠĠĠĠĠĠĠĠĠĠĠĠ":11618,"necessitate":11619,"disk":11620,"disjunctive":11621,"dissimilar":11622,"disappears":11623,"disinterested":11624,"disputes":11625,"Ġinfused":11626,"Ġinfancy":11627,"Ġexplication":11628,"Ġinteresting":11629,"ĠMore":11630,"ĠMatter":11631,"ĠModality":11632,"ĠMendels":11633,"ĠMAY":11634,"Ġkindness":11635,"Ġstrive":11636,"Ġstray":11637,"Ġstrain":11638,"Ġstriving":11639,"Ġhandle":11640,"Ġhandles":11641,"Ġdemerit":11642,"raised":11643,"raft":11644,"Ġconcess":11645,"Ġconcur":11646,"Ġappearing":11647,"otheology":11648,"Ġrestless":11649,"Ġanalyses":11650,"empty":11651,"Ġrefute":11652,"Ġrefused":11653,"Ġrefusing":11654,"Ġrefrain":11655,"regulate":11656,"regulated":11657,"Ġdivides":11658,"Ġsumm":11659,"Ġsums":11660,"events":11661,"undecided":11662,"ĠLest":11663,"ĠLogicians":11664,"Ġcompound":11665,"Ġcompany":11666,"Ġcompulsion":11667,"Ġcompelling":11668,"Ġcompetition":11669,"Ġcompromise":11670,"Ġcompilation":11671,"Ġadvised":11672,"Ġcontradicting":11673,"Ġdeductible":11674,"Ġassumes":11675,"Ġresiding":11676,"lude":11677,"ĊĊĠĠĠĠĠĠĠĠĠĠĠĠĠĠĠĠĠĠ":11678,"Ġtruthfulness":11679,"Ġ11":11680,"Ġ14":11681,"mediately":11682,"Ġdecay":11683,"Ġdecried":11684,"ĠUpdated":11685,"Ġmetals":11686,"accustomed":11687,"Ġmighty":11688,"Ġsuppressed":11689,"Ġpredicating":11690,"Ġpredicables":11691,"Ġpredicaments":11692,"Ġexpressing":11693,"Ġexpressly":11694,"Ġphysician":11695,"Ġphysica":11696,"Ġworking":11697,"Inasmuch":11698,"Introd":11699,"Ġix":11700,"Ġiii":11701,"Ġconfer":11702,"Ġconfident":11703,"Ġconfusions":11704,"Ġconfusing":11705,"Ġconfidently":11706,"Ġdiscoveries":11707,"Ġclock":11708,"Ġcloud":11709,"subscribe":11710,"substitution":11711,"subordinate":11712,"ĠConcept":11713,"ĠContrib":11714,"ĠConjunction":11715,"ĠContent":11716,"ĠContact":11717,"ĠConditions":11718,"knowing":11719,"Ġindivisible":11720,"Ġindolence":11721,"Ġdegrade":11722,"Ġdefiniteness":11723,"Ġarrog":11724,"Ġarranges":11725,"Ġacy":11726,"Ġacknowled":11727,"Ġclearing":11728,"Ġeloqu":11729,"Ġimperilled":11730,"Ġregression":11731,"Ġregressively":11732,"Ġediting":11733,"Ġedifices":11734,"contend":11735,"contact":11736,"monads":11737,"Ġsolemn":11738,"Ġpersonified":11739,"Ġexerted":11740,"Ġneeding":11741,"misconception":11742,"misapprehension":11743,"Ġfinishing":11744,"Ġfinanci":11745,"Ġaccordant":11746,"Ġcontingencies":11747,"Ġwanted":11748,"Ġscale":11749,"Ġscandal":11750,"array":11751,"arrived":11752,"parte":11753,"parted":11754,"aimed":11755,"ĠĠĠĠĠĠĠĠĠĠĠĠĠĠĠĠĠĠĠĠĠĠĠĠĠ":11756,"contradicts":11757,"contradictorily":11758,"Ġelemental":11759,"Ġassertorial":11760,"Ġassertorially":11761,"Ġmethodical":11762,"Ġcommanding":11763,"Ġmeanest":11764,"Ġlesson":11765,"Ġlesser":11766,"Ġlessened":11767,"ĠTHOSE":11768,"Ġoverthrow":11769,"Ġovercoming":11770,"goals":11771,"transcendentalism":11772,"Ġsolving":11773,"Ġdogma":11774,"Ġnonentity":11775,"Ġnonpropri":11776,"Ġdemonstrable":11777,"Ġrelationship":11778,"bitious":11779,"Ġequipped":11780,"Ġequilibrium":11781,"Ġidealistic":11782,"Ġidealizing":11783,"Ġcoin":11784,"Ġcoat":11785,"Ġcoar":11786,"Ġcool":11787,"Ġcoins":11788,"Ġcoerc":11789,"grace":11790,"ĠPrimal":11791,"ĠPriestle":11792,"ĠSub":11793,"ĠSupposing":11794,"ĠSubst":11795,"Ġboundless":11796,"Ġconducting":11797,"mense":11798,"ailing":11799,"Ġidentification":11800,"Ġ21":11801,"Ġ23":11802,"Ġopens":11803,"Ġmisuse":11804,"Ġmisology":11805,"Ġmisrepresentation":11806,"Ġmisinter":11807,"Ġmisapplied":11808,"Ġmissed":11809,"Ġmisleads":11810,"Ġmisfortune":11811,"Ġmischief":11812,"Ġmiserably":11813,"Ġexpecting":11814,"Ġharsh":11815,"Ġpassion":11816,"Ġpassions":11817,"Ġargumentative":11818,"Ġdenying":11819,"Ġdenotes":11820,"Ġappreciated":11821,"Ġapprehensions":11822,"ocate":11823,"ocks":11824,"extends":11825,"extreme":11826,"Ġceased":11827,"Ġobligatory":11828,"Ġgenerates":11829,"Ġgeneratio":11830,"Ġremarking":11831,"Ġpromising":11832,"Ġprominent":11833,"Ġsuperficial":11834,"Ġconsciously":11835,"ĠBeings":11836,"simplicity":11837,"simultaneous":11838,"Ġawakes":11839,"blunder":11840,"blances":11841,"differ":11842,"Ġlegislator":11843,"nearer":11844,"Ġpeculiarities":11845,"Ġmaintainer":11846,"Ġaffirming":11847,"connecting":11848,"Ġunderstands":11849,"aveolens":11850,"corporeal":11851,"somewhat":11852,"Ġundone":11853,"Ġundecided":11854,"Ġundisc":11855,"Ġundeveloped":11856,"describe":11857,"desired":11858,"Ġcircuit":11859,"Ġspeech":11860,"Ġbrutes":11861,"Ġbranch":11862,"Ġbrutum":11863,"Ġbridge":11864,"Äłins":11865,"happily":11866,"happened":11867,"righteous":11868,"ship":11869,"Ġignore":11870,"categorically":11871,"Ġintellectualized":11872,"Ġteleology":11873,"Ġfutile":11874,"Ġdistinctly":11875,"Ġdistinctness":11876,"brain":11877,"Ġclaiming":11878,"fering":11879,"ynics":11880,"Ġoperative":11881,"Ġoperates":11882,"Ġendeavouring":11883,"ĠAnalog":11884,"prescribed":11885,"Ġconvict":11886,"Ġconvictions":11887,"Ġcorrecting":11888,"Ġthreefold":11889,"Ġpretext":11890,"Ġdistributive":11891,"Ġparsimony":11892,"Ġparabol":11893,"Ġanalogical":11894,"sensuously":11895,"apse":11896,"examine":11897,"examined":11898,"examining":11899,"Ġinvolunt":11900,"Ġmeditation":11901,"noble":11902,"noisseurs":11903,"legality":11904,"procure":11905,"request":11906,"requiring":11907,"ĠUnphilosophical":11908,"Ġdynamics":11909,"impenetrable":11910,"justifies":11911,"Ġasking":11912,"Ġtranslated":11913,"ĠExternal":11914,"ĠExtent":11915,"ĠExamples":11916,"ĠExistences":11917,"ĠExecutive":11918,"ĠExamination":11919,"remove":11920,"remote":11921,"remarks":11922,"remained":11923,"remaining":11924,"attached":11925,"attacks":11926,"caused":11927,"fees":11928,"Ġprofundity":11929,"Ġpains":11930,"Ġpainful":11931,"Ġexcluding":11932,"Ġexclusive":11933,"Ġvainly":11934,"Ġdesigned":11935,"Ġdesignates":11936,"Ġdesignating":11937,"INCIDENTAL":11938,"asked":11939,"Ġsuccessively":11940,"compound":11941,"compressed":11942,"applies":11943,"Ġblow":11944,"respects":11945,"respecting":11946,"respective":11947,"Ġ596":11948,"orizontal":11949,"Ġmeanings":11950,"Ġmeaningless":11951,"inclined":11952,"includes":11953,"Ġthirdly":11954,"ĠArchitect":11955,"Ġraises":11956,"ftp":11957,"ificate":11958,"Ġdelivers":11959,"Ġdeline":11960,"Ġdelusions":11961,"Ġdelicate":11962,"Ġdelivered":11963,"Ġapproved":11964,"Ġapproval":11965,"Ġapprobation":11966,"consisting":11967,"Ġ*(":11968,"ĠVery":11969,"confounded":11970,"confutation":11971,"Ġreferable":11972,"Ġcheer":11973,"Ġchemist":11974,"thoughts":11975,"ĠSphere":11976,"Ġdeclined":11977,"Ġensure":11978,"Ġensures":11979,"Ġensuring":11980,"universally":11981,"Ġletters":11982,"Ġgeometer":11983,"Ġagreeably":11984,"quanta":11985,"Ġorganic":11986,"Ġarbitrium":11987,"ĠJUD":11988,"Ġsignificancy":11989,"thened":11990,"ĠKings":11991,"ĠKNOW":11992,"ĠREPL":11993,"ĠREFUND":11994,"constituted":11995,"constituent":11996,"mathematician":11997,"Ġseparates":11998,"Ġseparating":11999,"Ġ4000":12000,"Ġ4280":12001,"iterated":12002,"Ġcarelessness":12003,"worthless":12004,"ipid":12005,"ipate":12006,"metaphysicians":12007,"CEDURE":12008,"Ġoffence":12009,"insipid":12010,"divisible":12011,"possessions":12012,"ursively":12013,"Ġcreative":12014,"Ġsceptic":12015,"Ġfaulty":12016,"cogitable":12017,"cogitating":12018,"Ġwiser":12019,"Ġwisest":12020,"Ġacceptance":12021,"specific":12022,"venal":12023,"guides":12024,"Ġgenius":12025,"ĊĊĊĊĠĠ":12026,"ĊĊĊĊĠĠĠĠ":12027,"ĊĊĊĊĠĠĠ":12028,"ĊĊĊĊĠĠĠĠĠĠĠ":12029,"ĊĊĊĊĊĊĊĊ":12030,"thinker":12031,"thinkers":12032,"changeably":12033,"Ġfavourite":12034,"ĊĠĠĠĠĠĠĠĠĠĠ":12035,"Ġpropension":12036,"Ġpropounded":12037,"Ġoccasioning":12038,"Ġoccasioned":12039,"Ġoccasionally":12040,"Ġsurely":12041,"Ġdogmata":12042,"Ġdogmatists":12043,"satisfy":12044,"analysed":12045,"originated":12046,"originator":12047,"originarium":12048,"Ġgeometricians":12049,"Ġgeometrician":12050,"Ġhighway":12051,"predicated":12052,"predicaments":12053,"Ġinterference":12054,"Ġinterior":12055,"Ġinterrog":12056,"Ġinterpretation":12057,"Ġinterwoven":12058,"Ġinterfering":12059,"demonstrations":12060,"demonstratively":12061,"Ġirrespective":12062,"Ġconverting":12063,"Ġfrustr":12064,"Ġfrank":12065,"Ġframes":12066,"iminished":12067,"judges":12068,"judging":12069,"judicium":12070,"sensatio":12071,"Ġartifice":12072,"realized":12073,"realissimum":12074,"Ġcountenance":12075,"Ġcountries":12076,"advances":12077,"Ġcollect":12078,"Ġmechanically":12079,"explanations":12080,"Ġ92":12081,"Ġreducing":12082,"Ġexperiments":12083,"Ġexperimental":12084,"Ġurs":12085,"Ġurges":12086,"discovers":12087,"matters":12088,"volunteers":12089,"Ġaccessed":12090,"Ġaccessible":12091,"Ġcanons":12092,"observe":12093,"NDATION":12094,"Ġprudential":12095,"firstly":12096,"Ġaccidentally":12097,"Ġclassed":12098,"Ġcomprehended":12099,"Ġloses":12100,"investigating":12101,"continual":12102,"Professor":12103,"Ġdiversities":12104,"Ġdefects":12105,"attaining":12106,"Ġsketched":12107,"ĠImmortality":12108,"Ġdetection":12109,"Ġpracticable":12110,"Ġrecent":12111,"Ġrecord":12112,"Ġrecollection":12113,"Ġhumour":12114,"Ġwriter":12115,"Ġconfining":12116,"Ġascends":12117,"Ġventuring":12118,"Ġenlarges":12119,"Ġenlarging":12120,"influences":12121,"adequately":12122,"Ġbenef":12123,"Ġbenefits":12124,"ĊĠĠĠĠĠĠĠĠĠĠĠĠĠĠĠĠĠĠĠĠ":12125,"ĊĠĠĠĠĠĠĠĠĠĠĠĠĠĠĠĠĠĠĠĠĠ":12126,"Ġsentimental":12127,"Ġfirmness":12128,"Ġsucceeds":12129,"Ġstudent":12130,"Ġobscured":12131,"maximum":12132,"Ġmistaking":12133,"negations":12134,"neglect":12135,"glorious":12136,"saying":12137,"ÄłAr":12138,"ĠPhalar":12139,"affinity":12140,"Ġdestiny":12141,"Ġlowering":12142,"Ġglim":12143,"Ġglory":12144,"Ġpreserves":12145,"Ġpreservation":12146,"Ġ2003":12147,"attempting":12148,"Conceptions":12149,"drawing":12150,"ÄłPh":12151,"psychologia":12152,"Ġengraft":12153,"Ġqualified":12154,"Ġreckons":12155,"Äłequ":12156,"Ġstrengthening":12157,"Ġ70":12158,"Ġauthorizes":12159,"Ġauthorizing":12160,"Ġestimates":12161,"Ġbestowed":12162,"imagine":12163,"imagined":12164,"Ġspirituality":12165,"ĠPUBL":12166,"ĠPROBL":12167,"ĠPROCEDURE":12168,"ĠHerein":12169,"Ġreflected":12170,"regressive":12171,"regressus":12172,"Ġprofessions":12173,"Ġverify":12174,"Ġverbal":12175,"Ġguardian":12176,"operate":12177,"operative":12178,"operating":12179,"Ġ65":12180,"conditio":12181,"Ġrenamed":12182,"Ġrenounces":12183,"Ġrenounced":12184,"Ġrepul":12185,"Ġreputation":12186,"Ġreports":12187,"Ġreported":12188,"Ġhabitation":12189,"Ġincreases":12190,"Ġexcuse":12191,"Ġexcited":12192,"Ġexcusable":12193,"supplied":12194,"Ġsearching":12195,"pretext":12196,"obligatory":12197,"Ġmoves":12198,"Ġstruck":12199,"humanity":12200,"Ġoccurring":12201,"Ġblindness":12202,"Ġbehold":12203,"Ġbehalf":12204,"Ġextract":12205,"Ġdeviate":12206,"ĠChief":12207,"Ġenjoying":12208,"ĠEmpiricism":12209,"ĠEmployment":12210,"Ġstrongly":12211,"Ġstrongest":12212,"ĠLeibnitzian":12213,"difficult":12214,"unteer":12215,"define":12216,"depending":12217,"inquire":12218,"infinitely":12219,"Ġderivable":12220,"Ġtwist":12221,"Ġsuggests":12222,"Ġsuggestion":12223,"Ġsuggestions":12224,"ĠEpicureans":12225,"additions":12226,"secondly":12227,"degrees":12228,"Ġappeals":12229,"equally":12230,"equivalent":12231,"conceptus":12232,"instance":12233,"instances":12234,"Ġfortunate":12235,"ĠEveryone":12236,"Ġillustrations":12237,"Ġtransgresses":12238,"Ġtransgressing":12239,"Existence":12240,"Examples":12241,"Ġimitate":12242,"Ġimitating":12243,"Ġheader":12244,"Ġpermits":12245,"Ġadaptation":12246,"Ġsecrets":12247,"showing":12248,"attributing":12249,"requirement":12250,"ĠINTERNAL":12251,"Ġvanish":12252,"Ġvanishes":12253,"Ġprepares":12254,"ĠWhole":12255,"Ġsubstantive":12256,"Ġcontemplate":12257,"Ġobeys":12258,"Ġhinders":12259,"Ġadducing":12260,"Ġgovernor":12261,"ĠDIRECT":12262,"Ġmoderately":12263,"Ġscholar":12264,"Ġscholars":12265,"Ġscholastically":12266,"Ġrooted":12267,"directs":12268,"directing":12269,"directed":12270,"begins":12271,"singular":12272,"ACEMENT":12273,"Ġillegitimate":12274,"versa":12275,"antecedently":12276,"Ġsympath":12277,"Ġsymbol":12278,"Ġsympat":12279,"analytically":12280,"advantageous":12281,"Ġomnipresent":12282,"Ġomnipresence":12283,"labours":12284,"persons":12285,"personal":12286,"personality":12287,"Ġcommunic":12288,"abstracted":12289,"oxysms":12290,"Ġ85":12291,"Ġ841":12292,"Ġvex":12293,"Ġveiled":12294,"Ġvehic":12295,"Ġinjuring":12296,"Ġinjury":12297,"Ġrejects":12298,"Ġrejection":12299,"Ġsuffers":12300,"Ġsuffices":12301,"Äłgener":12302,"Ġattractions":12303,"ĊĊĠĠĠĠĠĠĠĠĠĠĠĠĠĠĠ":12304,"ĊĊĊĊĠĠĠĠĠĠĠĠĠĠĠĠĠĠĠĠĠĠĠ":12305,"Ġabandoned":12306,"Ġstarted":12307,"Ġevidencing":12308,"Ġconfusedly":12309,"Ġaccomplishes":12310,"correctly":12311,"correctness":12312,"Ġspectata":12313,"Ġspectacle":12314,"occupies":12315,"maintains":12316,"aenomena":12317,"Ġcuriosity":12318,"comparatively":12319,"Ġtypic":12320,"conclusio":12321,"Ġaltering":12322,"Ġsettlement":12323,"Ġlegitimately":12324,"ĊĠĠĠĠĠĠĠĠĠĠĠĠĠĠĠĠĠĠĠĠĠĠĠĠĠĠ":12325,"security":12326,"Ġdictation":12327,"Ġdictated":12328,"Ġlocale":12329,"Ġdeepest":12330,"Ġmeantime":12331,"Ġimparted":12332,"Ġimpartiality":12333,"ĠMaterial":12334,"commands":12335,"Ġblameless":12336,"Ġmonogram":12337,"Ġmonads":12338,"distribute":12339,"distribution":12340,"affirming":12341,"affirmations":12342,"collection":12343,"collected":12344,"modi":12345,"progressus":12346,"needing":12347,"authors":12348,"promise":12349,"promote":12350,"Ġtells":12351,"Ġlinked":12352,"constructions":12353,"Ġfulfils":12354,"Ġtender":12355,"Ġtendencies":12356,"Ġcleared":12357,"Ġresolves":12358,"Ġresolutions":12359,"Ġreplaced":12360,"Ġdrives":12361,"Ġhardness":12362,"results":12363,"Ġdeprives":12364,"Ġundertakes":12365,"Ġstops":12366,"ĠPerception":12367,"ĠPerfect":12368,"ĠPerhaps":12369,"ĠPermitted":12370,"Ġpreferable":12371,"Ġpreferred":12372,"ĠCategory":12373,"ĠCategorical":12374,"Ġpresumed":12375,"Ġambigu":12376,"Ġteachings":12377,"Ġcalculation":12378,"Ġhyperbol":12379,"generations":12380,"incerity":12381,"enlarges":12382,"enlarging":12383,"indispensably":12384,"errors":12385,"graduated":12386,"reciprocity":12387,"moon":12388,"Ġjoining":12389,"Ġannounces":12390,"Ġannoying":12391,"Ġerroneously":12392,"copy":12393,"copying":12394,"country":12395,"Ġaugmentative":12396,"Ġcentury":12397,"Ġrevealed":12398,"ĠTranscendent":12399,"ĠTrancendent":12400,"Ġalleging":12401,"agreeable":12402,"materialiter":12403,"ĠComposition":12404,"ĠCompliance":12405,"Ġenouncement":12406,"Ġimplying":12407,"Ġdecidedly":12408,"Ġcolouring":12409,"affecting":12410,"Ġously":12411,"Ġincit":12412,"Ġincumb":12413,"smaller":12414,"constructs":12415,"constructed":12416,"individuals":12417,"opportunity":12418,"Ġinstructs":12419,"Ġerects":12420,"Ġratione":12421,"Ġprincipally":12422,"sophistries":12423,"Ġattacked":12424,"Ġ501":12425,"pathologically":12426,"ULTY":12427,"Ġwax":12428,"Ġwait":12429,"Ġwider":12430,"Ġinherence":12431,"Ġthyself":12432,"Ġthreatened":12433,"Ġthreatening":12434,"Ġfootpath":12435,"Ġfootsteps":12436,"Ġnullity":12437,"Ġconjectures":12438,"Ġhundreds":12439,"Ġpropensions":12440,"Ġviolate":12441,"profitable":12442,"ĠAlaska":12443,"Ġyouthful":12444,"ĠMeanwhile":12445,"Ġconcealment":12446,"Ġroads":12447,"ĠÃĨSTHE":12448,"ĠProofs":12449,"ĠProblematical":12450,"Ġobstinacy":12451,"ĠPhilosophical":12452,"ĠPhysics":12453,"Ġprospects":12454,"Ġhypostatize":12455,"Ġhypostatized":12456,"801":12457,"deserve":12458,"apodeictical":12459,"Beyond":12460,"CLUSION":12461,"poseless":12462,"LIABILITY":12463,"LIABLE":12464,"communio":12465,"Ġreconcile":12466,"Ġhesitation":12467,"Ġamounts":12468,"Ġstruggles":12469,"Ġstruggling":12470,"Ġflatters":12471,"Ġsovereignty":12472,"Ġmachines":12473,"Ġmachinery":12474,"Ġdespising":12475,"ĠEXCEP":12476,"ĠEXTERNAL":12477,"Ġirremediable":12478,"ĠSystematic":12479,"ĠNewby":12480,"Ġbreaks":12481,"pursuit":12482,"pursued":12483,"Ġpoor":12484,"Ġpressure":12485,"Ġruined":12486,"donation":12487,"Ġcourtes":12488,"experiment":12489,"inseparable":12490,"Ġascertaining":12491,"Ġalternation":12492,"Ġalternate":12493,"Ġalternatively":12494,"Ġruns":12495,"dispositions":12496,"Ġincompatible":12497,"Ġannexes":12498,"Ġexemption":12499,"Ġexcellence":12500,"Ġlicence":12501,"Ġlicet":12502,"Ġdetract":12503,"ĠPRINT":12504,"Ġsubstitute":12505,"Ġsubstituting":12506,"Ġ1971":12507,"Ġelaborate":12508,"Ġelaborating":12509,"Ġmoderns":12510,"Ġantinomial":12511,"Ġsolicitation":12512,"Ġsolidity":12513,"Ġinstincts":12514,"Ġdenomination":12515,"Ġspiritualism":12516,"ĠDIALECTICAL":12517,"Ġflowing":12518,"Permanence":12519,"Persuasion":12520,"classes":12521,"sympathy":12522,"designate":12523,"comprehending":12524,"comprehended":12525,"organon":12526,"cility":12527,"devised":12528,"remarking":12529,"haustible":12530,"contemplated":12531,"SECTION":12532,"SECOND":12533,"harmonize":12534,"treatment":12535,"definitely":12536,"convincing":12537,"expositions":12538,"ĠConclusion":12539,"Ġsilver":12540,"Ġinexorably":12541,"Ġinexhaustible":12542,"Ġbinds":12543,"ancients":12544,"Ġbetrayed":12545,"Ġprimeval":12546,"Ġunfortunate":12547,"Ġtrustworthy":12548,"Ġheights":12549,"Ġperplexing":12550,"ĠAbout":12551,"Ġmysticism":12552,"Ġcompassion":12553,"ĊĊĠĠĠĠĠĠĠĠĠĠĠĠĠĠĠĠĠĠĠĠĠĠĠĠĠĠĠĠĠĠĠĠĠĠĠ":12554,"ĊĊĠĠĠĠĠĠĠĠĠĠĠĠĠĠĠĠĠĠĠĠĠĠĠĠĠĠĠĠĠĠĠĠĠĠĠĠĠĠĠ":12555,"specifically":12556,"Ġsuffering":12557,"ĊĊĊĊĠĠĠĠĠĠĠĠĠĠĠĠĠĠĠĠĠĠĠĠĠĠĠĠĠĠĠĠĠĠĠĠĠĠĠĠĠĠĠ":12558,"Ġridicule":12559,"Grant":12560,"admixture":12561,"admiration":12562,"honoured":12563,"honesty":12564,"excite":12565,"excited":12566,"Deity":12567,"cosmology":12568,"increase":12569,"introduction":12570,"transcends":12571,"exhibit":12572,"probable":12573,"ĠQuantity":12574,"heterogeneous":12575,"reckoning":12576,"secting":12577,"forthcoming":12578,"speak":12579,"Ġgratification":12580,"Produce":12581,"declarations":12582,"momenta":12583,"tonian":12584,"Ġectypal":12585,"Ġrestrained":12586,"Ġluxury":12587,"Ġchiefly":12588,"ĠGrant":12589,"descent":12590,"Ġinnate":12591,"Ġinsisted":12592,"Ġbonus":12593,"Ġpragmatic":12594,"Ġsustain":12595,"Ġsustained":12596,"Ġcomprised":12597,"Ġembarrassments":12598,"Ġhealthy":12599,"ĠAGREEMENT":12600,"Ġcharitable":12601,"ĠIntroduction":12602,"ĠGermany":12603,"Ġencourage":12604,"Ġencourages":12605,"Ġcriticize":12606,"ĠMission":12607,"majesty":12608,"Ġsurprise":12609,"Ġdeficiency":12610,"Ġpunctual":12611,"Ġpunctually":12612,"Ġstrengthens":12613,"Ġtalked":12614,"Ġastonishing":12615,"ĠMethodology":12616,"Ġdenominated":12617,"Ġfatalist":12618,"delusion":12619,"confirmation":12620,"barism":12621,"enjoyment":12622,"detailed":12623,"agonal":12624,"anthropomorphic":12625,"501":12626,"creature":12627,"creatures":12628,"testing":12629,"Ġeducation":12630,"Ġeducational":12631,"recognise":12632,"recognizes":12633,"Ġepisyllogism":12634,"substantia":12635,"PROVIDED":12636,"bringing":12637,"ficiency":12638,"Ġautomaton":12639,"Ġmali":12640,"Ġmalum":12641,"Ġlarger":12642,"Ġlargest":12643,"ĠINDEMNITY":12644,"Ġardent":12645,"professes":12646,"preventing":12647,"ĠÄłÄłÄł":12648,"Ġpoles":12649,"Ġpolice":12650,"Ġredistribute":12651,"Ġredistributing":12652,"Ġricher":12653,"precepts":12654,"Ġimaginarium":12655,"Ġtheorems":12656,"Ġslip":12657,"Ġswamp":12658,"Ġpublish":12659,"Ġpublished":12660,"Ġparents":12661,"Ġinspires":12662,"Ġincorporeal":12663,"Ġmarvellous":12664,"Ġmasses":12665,"Ġtolerable":12666,"Ġtolerate":12667,"Ġrefinement":12668,"Ġprolonging":12669,"Ġprolonged":12670,"Ġratiocinant":12671,"Ġvisionary":12672,"ĠBEFORE":12673,"Ġperpetual":12674,"ĠAgainst":12675,"Ġconsulting":12676,"ĠSeat":12677,"Ġsubdivided":12678,"Ġsubdivisions":12679,"ĠWolfian":12680,"ĠCanon":12681,"ĠCognition":12682,"ĠCognitions":12683,"Ġcommercium":12684,"Ġvalues":12685,"Ġvalued":12686,"Ġsimplest":12687,"ĠDetermine":12688,"ĠDetermining":12689,"Ġresponsible":12690,"Ġresponsibility":12691,"ĠSubjective":12692,"Ġaddresses":12693,"Ġparadoxical":12694,"Ġchemists":12695,"Ġfacility":12696,"Ġtautological":12697,"Ġbeneficence":12698,"Ġwavering":12699,"Ġarchetypal":12700,"Ġarchetypes":12701,"beneficial":12702,"Ġpotential":12703,"available":12704,"flown":12705,"doctrines":12706,"doctrinal":12707,"authorized":12708,"cultivated":12709,"framed":12710,"ratione":12711,"sketch":12712,"sentiments":12713,"reconciled":12714,"requisite":12715,"exercising":12716,"Philosophical":12717,"1887":12718,"Caius":12719,"Causality":12720,"diversity":12721,"diversities":12722,"master":12723,"mastery":12724,"temptation":12725,"temptations":12726,"Ġfluid":12727,"settlement":12728,"strength":12729,"strengthened":12730,"iverance":12731,"performing":12732,"abandoning":12733,"abandoned":12734,"private":12735,"privilege":12736,"Ġarticulation":12737,"obscure":12738,"obscurity":12739,"impulse":12740,"impulses":12741,"Idealism":12742,"functions":12743,"parents":12744,"Ġmountain":12745,"Ġmountains":12746,"Ġdrops":12747,"plainly":12748,"Ġadversary":12749,"Ġcardinal":12750,"Ġsalts":12751,"Ġsanct":12752,"Ġsanctions":12753,"Ġseduced":12754,"Ġsmoke":12755,"Ġsmooth":12756,"Ġsoftware":12757,"Ġincapac":12758,"Ġincapacity":12759,"Ġmilitates":12760,"Ġflatten":12761,"Ġelucidate":12762,"Ġreverses":12763,"Ġdiameter":12764,"Ġdiagonal":12765,"Ġlatent":12766,"Ġlimbs":12767,"Ġhastily":12768,"Ġunconsciously":12769,"Ġmelts":12770,"Ġshadows":12771,"Ġappetite":12772,"Ġyea":12773,"ĠPGLAF":12774,"ĠPostulate":12775,"ĠPostulates":12776,"Ġarguing":12777,"ĠSchematism":12778,"Ġsubreptions":12779,"Ġsubreptio":12780,"ĠCauses":12781,"ĠCausality":12782,"ĠCertainly":12783,"ĠCosmical":12784,"ĠCosmology":12785,"ĠRedistribution":12786,"ĠRedistributing":12787,"Ġconfounding":12788,"Ġindividuum":12789,"Ġheroes":12790,"Ġfalsity":12791,"Ġ5682":12792,"Ġ5683":12793,"ĊĊĊĊĠĠĠĠĠĠĠĠĠ":12794,"Ġadmirers":12795,"Ġsignalize":12796,"transgression":12797,"ĠWhoever":12798,"Ġsharpen":12799,"Ġpoisons":12800,"ĠDISTRIBUTE":12801,"ĠDISTRIBUTOR":12802,"Concluding":12803,"5683":12804,"architectonic":12805,"humiliates":12806,"laborious":12807,"ithmetic":12808,"ĠEDITION":12809,"sensualizing":12810,"Epicurean":12811,"Morality":12812,"Stoics":12813,"azard":12814,"calculation":12815,"destination":12816,"easily":12817,"elevated":12818,"facility":12819,"familiar":12820,"loving":12821,"penetrating":12822,"wisdom":12823,"warranties":12824,"inozism":12825,"instructed":12826,"enumerate":12827,"threatens":12828,"embarrassment":12829,"conjectured":12830,"confines":12831,"convenience":12832,"primary":12833,"speculations":12834,"serviceable":12835,"mysticism":12836,"PLEASE":12837,"scholastic":12838,"circumstances":12839,"6221541":12840,"Wolfian":12841,"motherly":12842,"Ġadequacy":12843,"animals":12844,"constantly":12845,"ademical":12846,"adapted":12847,"Ġappertaining":12848,"undoubtedly":12849,"granting":12850,"consequentiae":12851,"Ġtears":12852,"Ġtheologians":12853,"Ġwandering":12854,"Ġcandour":12855,"Ġcitizen":12856,"Ġsagacity":12857,"Ġincomprehensibility":12858,"Ġindiscernibles":12859,"Ġinstrument":12860,"Ġincontrovertibly":12861,"Ġbroke":12862,"Ġthirteen":12863,"Ġthwarting":12864,"Ġmingles":12865,"Ġfantastic":12866,"Ġnominally":12867,"Ġeclipses":12868,"Ġliquet":12869,"Ġlanguages":12870,"Ġweariness":12871,"Ġforgetting":12872,"Ġsupposititious":12873,"Ġsuddenly":12874,"Ġgerm":12875,"ĠIRS":12876,"Ġalkali":12877,"Ġunsolicited":12878,"Ġunquestionably":12879,"Ġempiricist":12880,"Ġembellishments":12881,"Ġtradesman":12882,"ĠBecause":12883,"Ġimmediatae":12884,"Ġnovelty":12885,"ĠFaculty":12886,"ĠFOUNDATION":12887,"ĠAdditional":12888,"Ġaccusation":12889,"ĠPrecisely":12890,"ĠParalogisms":12891,"Ġdissipate":12892,"Ġdisappointment":12893,"Ġarmoury":12894,"Ġphantoms":12895,"ĠIntellect":12896,"ĠGregory":12897,"ĠClue":12898,"ĠCopernicus":12899,"Ġobliterated":12900,"Ġdiscretum":12901,"ĠHistory":12902,"ĠHypothesis":12903,"Ġenvy":12904,"Ġenigma":12905,"ĠEvents":12906,"Ġtertium":12907,"Ġentrusted":12908,"Ġimpotence":12909,"Ġshallowness":12910,"Ġinflexible":12911,"ĠLatin":12912,"Ġdecrease":12913,"Ġilluminated":12914,"ĠOntological":12915,"Ġdegraded":12916,"Ġmisleading":12917,"Ġsurrounded":12918,"Ġsurreptitiously":12919,"Ġindisputable":12920,"ĠImperatives":12921,"Ġdetails":12922,"Ġprosyllogisms":12923,"Ġdeviations":12924,"ĠDiscovery":12925,"Ġtreasures":12926,"ĠNegation":12927,"ĠOriginally":12928,"Ġzealous":12929,"Ġsteadfastness":12930,"Ġsilenced":12931,"ĠAbbott":12932,"Ġauthenticated":12933,"Ġastronomers":12934,"Ġeconomical":12935,"ĠPHILOSO":12936,"ĠRIGHT":12937,"Ġducat":12938,"struggle":12939,"escape":12940,"Ġallege":12941,"indubitably":12942,"omnipotence":12943,"Ġatheistic":12944,"Ġoptical":12945,"Ġpushed":12946,"Ġnisi":12947,"Ġconditio":12948,"defence":12949,"ortunities":12950,"overer":12951,"Substances":12952,"Ġcapital":12953,"Aristotle":12954,"Criticism":12955,"Categories":12956,"DAMAGE":12957,"GRAPH":12958,"Juvenal":12959,"Meanwhile":12960,"Pleasure":12961,"Possibility":12962,"Particular":12963,"Revenue":12964,"Things":12965,"Until":12966,"busy":12967,"civilized":12968,"dollars":12969,"fanaticism":12970,"fictitious":12971,"fruitful":12972,"hindrances":12973,"hopes":12974,"mundus":12975,"movable":12976,"pobox":12977,"soundness":12978,"twofold":12979,"victory":12980,"welfare":12981,"Ġaverage":12982,"Ġaequivoca":12983,"repeated":12984,"resemblances":12985,"reluctantly":12986,"recommendations":12987,"encouragement":12988,"alleged":12989,"Ġnetwork":12990,"Ġdictionis":12991,"starry":12992,"omnitudo":12993,"ectypa":12994,"theorem":12995,"improvement":12996,"Ġlibitum":12997,"ibiblio":12998,"persisted":12999,"perpetually":13000,"perplexity":13001,"conjunctio":13002,"detrimental":13003,"pragmatic":13004,"suppositio":13005,"excellent":13006,"acceptation":13007,"behoof":13008,"commencing":13009,"paradoxical":13010,"obstacles":13011,"Prototypon":13012,"opponent":13013,"TRADEMARK":13014,"Ġtibi":13015,"Ġwalks":13016,"Ġcunning":13017,"Ġcathartic":13018,"Ġcubic":13019,"Ġcrowded":13020,"Ġinanimate":13021,"Ġinexplicable":13022,"Ġinestimable":13023,"Ġinhabitants":13024,"Ġinsensibly":13025,"Ġthreshold":13026,"Ġdiligence":13027,"Ġdialetic":13028,"Ġbequeath":13029,"Ġwholes":13030,"Ġhostile":13031,"Ġaspirations":13032,"Ġlaugh":13033,"Ġlibrary":13034,"Ġwearied":13035,"Ġforbear":13036,"Ġsupremacy":13037,"Ġgbnewby":13038,"Ġprolixity":13039,"Ġdeletions":13040,"Ġintimidation":13041,"Ġintegrity":13042,"Ġhaphazard":13043,"Ġunshaken":13044,"Ġunqualified":13045,"Ġunexceptionable":13046,"Ġunsettled":13047,"Ġunalterable":13048,"Ġcaelo":13049,"Ġraindrops":13050,"Ġtriangles":13051,"ĠBerkeley":13052,"Ġpermanently":13053,"Ġnoblest":13054,"ĠFACULTY":13055,"ĠFebruary":13056,"Ġcognizant":13057,"ĠACTUAL":13058,"ĠAldarondo":13059,"ĠPolemics":13060,"ĠPARAGRAPH":13061,"ĠSMALL":13062,"Ġphilanthropist":13063,"ĠNoumena":13064,"Ġsubdued":13065,"Ġsubsidiary":13066,"ĠGovernor":13067,"ĠWORK":13068,"ĠWILL":13069,"Ġcontrariwise":13070,"ĠCartesian":13071,"ĠCOROLLARY":13072,"ĠCarolina":13073,"Ġobnoxious":13074,"Ġobsolete":13075,"ĠHarmony":13076,"Ġvalueless":13077,"ĠElucidation":13078,"ĠEBCDIC":13079,"ĠELEMENTS":13080,"ĠDirector":13081,"ĠDOMAIN":13082,"Ġcorporation":13083,"ĠMendelssohn":13084,"ĠContributions":13085,"Ġeloquent":13086,"Ġfinancial":13087,"Ġnonproprietary":13088,"Ġcoercion":13089,"ĠPriestley":13090,"ĠSubstance":13091,"Ġmisinterpretation":13092,"Ġundiscovered":13093,"ĠAnalogies":13094,"Ġparabola":13095,"Ġinvoluntarily":13096,"ĠArchitectonic":13097,"ĠJUDGEMENT":13098,"ĠKingsmill":13099,"ĠREPLACEMENT":13100,"Ġfrankness":13101,"ĠPhalaris":13102,"ĠPUBLIC":13103,"ĠPROBLEM":13104,"Ġ84116":13105,"Ġhyperbolic":13106,"ĠTrancendentale":13107,"Ġincumbent":13108,"ĠÃĨSTHETIC":13109,"ĠEXCEPT":13110,"Ġcourtesy":13111,"Ġave":13112,"Ġail":13113,"Ġaking":13114,"Ġpens":13115,"Ġites":13116,"Ġiting":13117,"Ġitas":13118,"Ġither":13119,"Ġular":13120,"Ġond":13121,"Ġling":13122,"Ġged":13123,"ÄłJ":13124,"Äłes":13125,"Äłed":13126,"Äłid":13127,"Äłcl":13128,"Äłfin":13129,"Äłmed":13130,"Äłcontr":13131,"Äłleg":13132,"Äłpur":13133,"Äłconce":13134,"Äłgl":13135,"Äłpret":13136,"Ġors":13137,"Ġify":13138,"Ġified":13139,"soph":13140,"Ġark":13141,"Ġarch":13142,"ĠOU":13143,"ÃĦÅĤr":13144,"ÃĦÅĤw":13145,"ÃĦÅĤdis":13146,"ĠEN":13147,"Ġtermin":13148,"Äłrem":13149,"ÄłAn":13150,"Äłexp":13151,"ÄłPro":13152,"Ġolog":13153,"Äładm":13154,"ĠÄłÄłÄłÄłÄłÄłÄł":13155,"bted":13156,"leness":13157,"ucid":13158,"Ġience":13159,"Ġime":13160,"Ġiate":13161,"Ġirm":13162,"Ġician":13163,"Ġaces":13164,"Ġained":13165,"Ġove":13166,"Ġode":13167,"Ġoft":13168,"Ġcul":13169,"Ġcious":13170,"Ġson":13171,"Ġsect":13172,"Ġpect":13173,"Ġbal":13174,"Ġff":13175,"Ġision":13176,"Ġitable":13177,"Ġdu":13178,"Ġudes":13179,"idic":13180,"Ġges":13181,"Äłom":13182,"Äłec":13183,"Äłve":13184,"Äław":13185,"Äłart":13186,"Äłet":13187,"Äłte":13188,"Äłro":13189,"Äłear":13190,"Äłphys":13191,"Äłdetermin":13192,"Äłlaw":13193,"ÄłÃĥ":13194,"Äłbl":13195,"Äłne":13196,"Äłap":13197,"Äłno":13198,"Äłprov":13199,"ÄłSu":13200,"ÄłPr":13201,"Äłindis":13202,"Äłcontinu":13203,"Äłcommun":13204,"ÄłUn":13205,"ĠIC":13206,"Ġatis":13207,"Ġatio":13208,"Ġatively":13209,"Ġsel":13210,"Ġstit":13211,"Ġstem":13212,"Ġque":13213,"Ġars":13214,"ÃĦÅĤe":13215,"ĠCE":13216,"Ġened":13217,"Ġention":13218,"Ġentia":13219,"rap":13220,"Ġior":13221,"Ġius":13222,"Ġansc":13223,"Ġutation":13224,"Äłinc":13225,"Äłinst":13226,"Äłcal":13227,"Äłsum":13228,"Äłfa":13229,"Äłpass":13230,"Ġurn":13231,"Äłbene":13232,"Äłconv":13233,"Ġordin":13234,"ÄłDe":13235,"Ġctive":13236,"Ġounce":13237,"Ġwards":13238,"Ã¢Ä¢Ä¿":13239,"BOL":13240,"NIC":13241,"Sol":13242,"bt":13243,"lvan":13244,"nos":13245,"Ġ.":13246,"Ġiz":13247,"Ġern":13248,"Ġires":13249,"Ġicable":13250,"Ġxi":13251,"Ġief":13252,"Ġired":13253,"Ġizes":13254,"ĠÄłÄłÄłÄłÄłÄłÄłÄłÄłÄłÄłÄłÄłÄłÄłÄł":13255,"ĠÃĦÅĤÃĦÅĤÃĦÅĤÃĦÅĤÃĦÅĤÃĦÅĤÃĦÅĤÃĦÅĤÃĦÅĤÃĦÅĤÃĦÅĤÃĦÅĤÃĦÅĤÃĦÅĤÃĦÅĤÃĦÅĤ":13256,"Ġtle":13257,"Ġaly":13258,"Ġale":13259,"Ġade":13260,"Ġains":13261,"Ġole":13262,"Ġoll":13263,"Ġook":13264,"Ġsist":13265,"Ġines":13266,"Ġince":13267,"Ġffici":13268,"Ġner":13269,"Ġety":13270,"Ġitive":13271,"Ġitude":13272,"Ġitio":13273,"omin":13274,"arp":13275,"Ġull":13276,"Ġuring":13277,"ivum":13278,"Ġange":13279,"pted":13280,"Äłwith":13281,"Äłthere":13282,"Äłdo":13283,"Äłanaly":13284,"Äłorigin":13285,"Äłvol":13286,"Äłassert":13287,"Äłcomb":13288,"Äłsym":13289,"ĠIT":13290,"Ġrust":13291,"Ġraw":13292,"Ġrough":13293,"Ġempt":13294,"Ġimin":13295,"Ġimate":13296,"Ġuses":13297,"ffer":13298,"Ġmort":13299,"ĠAM":13300,"ĠATION":13301,"Ġjoy":13302,"Ġjunction":13303,"Ġjoined":13304,"Ġples":13305,"ÃĦÅĤM":13306,"ÃĦÅĤan":13307,"ismis":13308,"ĠEC":13309,"ĠES":13310,"Ġmatical":13311,"Ġigh":13312,
[...]
